#include "network_data.h"

ai_handle ai_network_data_weights_get(void)
{

  AI_ALIGNED(4)
  static const ai_u8 s_network_weights[ 21952 ] = {
    0x00, 0xf6, 0xad, 0xb8, 0x9a, 0x51, 0x2f, 0xb7, 0x8d, 0x1c,
    0xea, 0xb8, 0x25, 0xaa, 0xf1, 0xb8, 0x5a, 0xf1, 0x35, 0xb8,
    0xc0, 0x52, 0x28, 0x38, 0x77, 0xdf, 0x85, 0xb8, 0xbc, 0x18,
    0x41, 0xb9, 0xeb, 0xb8, 0xda, 0x34, 0xcf, 0xc4, 0x0d, 0xb9,
    0x6a, 0x45, 0x65, 0x38, 0x14, 0xe8, 0x88, 0xb8, 0x25, 0xcc,
    0x32, 0xb9, 0xab, 0x5d, 0x52, 0xb9, 0xdf, 0x26, 0x13, 0xb9,
    0x3b, 0x9c, 0xec, 0xb8, 0xba, 0xfc, 0x57, 0x38, 0xe2, 0xa1,
    0x91, 0x37, 0xdb, 0x74, 0x1e, 0xba, 0xa7, 0x38, 0x44, 0x3a,
    0x99, 0xef, 0x95, 0x39, 0x73, 0x1f, 0xe0, 0xb9, 0x22, 0xfb,
    0xf0, 0xb8, 0x39, 0x2e, 0x8a, 0xb9, 0x74, 0x79, 0x3e, 0x39,
    0x16, 0xfc, 0xc7, 0xb8, 0x0a, 0x75, 0xd7, 0x39, 0x1d, 0x6d,
    0x04, 0xba, 0x0b, 0x64, 0x33, 0xba, 0x6b, 0x4e, 0xe0, 0x39,
    0x9a, 0x51, 0xb1, 0xb9, 0xc1, 0xd6, 0x02, 0x3a, 0x0c, 0xa5,
    0x03, 0x39, 0xbe, 0x1c, 0x84, 0xb9, 0x0b, 0xb6, 0x16, 0xb9,
    0x2f, 0xc3, 0x41, 0xb9, 0xe0, 0x4d, 0x57, 0x38, 0x09, 0xbc,
    0x3b, 0x39, 0xcb, 0x45, 0xf1, 0x37, 0x21, 0x1e, 0x18, 0x39,
    0xb0, 0xb0, 0x23, 0x38, 0x2f, 0x2d, 0xf3, 0x37, 0x95, 0x42,
    0x2a, 0xb9, 0x4b, 0x18, 0xdd, 0xb8, 0xe3, 0x2b, 0x01, 0x35,
    0x1d, 0xa7, 0x6b, 0xb8, 0x06, 0xbb, 0x19, 0x39, 0x69, 0xb3,
    0x57, 0x39, 0x06, 0x4f, 0x2b, 0x39, 0x05, 0x45, 0x15, 0x39,
    0xc0, 0x74, 0x09, 0x39, 0xac, 0xe6, 0x36, 0x39, 0x47, 0xcf,
    0xce, 0xb8, 0xf1, 0x64, 0x8a, 0xb8, 0xf4, 0x53, 0x8e, 0xb9,
    0xaf, 0x9d, 0xd9, 0xb8, 0x22, 0xf4, 0x81, 0xb9, 0xaa, 0xb6,
    0x6c, 0x37, 0x1c, 0xf4, 0x70, 0xb8, 0x58, 0xc7, 0xd4, 0x38,
    0xa9, 0x21, 0x90, 0xb9, 0x42, 0xb3, 0xc3, 0x38, 0x0d, 0x26,
    0x98, 0xb8, 0x16, 0x5a, 0x03, 0xb9, 0xf8, 0x65, 0xea, 0xb8,
    0x5b, 0x7e, 0x7d, 0x39, 0xf4, 0x69, 0x56, 0xb8, 0xd2, 0x36,
    0x75, 0xb9, 0x85, 0xe0, 0xa1, 0xb9, 0xbd, 0x68, 0x15, 0x37,
    0x76, 0x0e, 0x8c, 0x37, 0x2d, 0x04, 0xb4, 0xb8, 0x50, 0x78,
    0x2a, 0xb8, 0x72, 0x62, 0x0c, 0xba, 0xd2, 0x50, 0x24, 0xb9,
    0x7e, 0x0c, 0xb1, 0x39, 0x9a, 0x44, 0xef, 0x39, 0xb8, 0x34,
    0x02, 0xba, 0xfc, 0xba, 0xb9, 0xb9, 0xa4, 0xe1, 0x09, 0x39,
    0x4b, 0x67, 0xc9, 0xb9, 0x78, 0x35, 0xc8, 0x39, 0xdb, 0xa1,
    0x1b, 0x3a, 0xa0, 0x8b, 0x28, 0xba, 0x09, 0x10, 0xd5, 0x39,
    0x89, 0xc8, 0x45, 0xba, 0x90, 0x70, 0x4c, 0x38, 0x3f, 0x5d,
    0x85, 0x38, 0xcb, 0xba, 0x38, 0x3a, 0xfd, 0xb3, 0x4a, 0xba,
    0x36, 0x14, 0x6f, 0x39, 0x4a, 0x5c, 0x4d, 0xb9, 0x7a, 0xd4,
    0x8f, 0xb9, 0x90, 0xea, 0xb0, 0x36, 0x53, 0x30, 0x7b, 0x39,
    0x0a, 0xb5, 0x85, 0xb9, 0x71, 0x14, 0xb6, 0xb9, 0xc1, 0xd4,
    0x9f, 0x39, 0xd1, 0xd2, 0x6c, 0xba, 0xb5, 0xfb, 0x55, 0x3a,
    0xcb, 0xa5, 0xb6, 0xb9, 0x38, 0xd7, 0xe5, 0x39, 0xb7, 0x7b,
    0x24, 0x39, 0x3a, 0xa9, 0x0f, 0xba, 0xe7, 0x5a, 0x9d, 0xba,
    0xce, 0x0d, 0x8e, 0x3a, 0xc4, 0x0c, 0x89, 0xb8, 0xff, 0xce,
    0x7b, 0x39, 0x3c, 0xc2, 0x14, 0xba, 0x9c, 0x40, 0xe9, 0x39,
    0x3d, 0x06, 0x18, 0xba, 0x29, 0x4e, 0x09, 0x3a, 0xa7, 0xb0,
    0x01, 0x39, 0x90, 0x17, 0xac, 0xb9, 0x40, 0xbf, 0x37, 0x39,
    0x58, 0x3f, 0x57, 0xb9, 0x84, 0x29, 0x5b, 0x3a, 0x41, 0x76,
    0x4e, 0xba, 0xec, 0x34, 0x67, 0xb9, 0x03, 0x33, 0xcc, 0xb8,
    0xd1, 0xe4, 0x51, 0xba, 0xfe, 0xa0, 0x38, 0x3a, 0xd4, 0xd3,
    0x47, 0x39, 0x3d, 0x15, 0xe0, 0xb8, 0xee, 0x06, 0xa1, 0x3a,
    0x67, 0x77, 0xbc, 0xba, 0x28, 0x56, 0xb6, 0x39, 0xa4, 0xbb,
    0xc7, 0xb9, 0x79, 0x9e, 0x7d, 0x38, 0x12, 0x83, 0x4c, 0x39,
    0x67, 0x26, 0xf0, 0xb8, 0x40, 0x15, 0xab, 0x39, 0xfe, 0xbe,
    0xda, 0x38, 0xa7, 0xf1, 0x73, 0x38, 0x62, 0x49, 0xe9, 0xb8,
    0x17, 0x6b, 0x1d, 0xb7, 0x5d, 0xb6, 0x0a, 0x39, 0xdf, 0x76,
    0x52, 0xb9, 0x45, 0xdf, 0x52, 0x38, 0xff, 0x5a, 0x37, 0x36,
    0xe6, 0x46, 0x2a, 0x38, 0x74, 0x6b, 0x08, 0x38, 0x6b, 0x9c,
    0xc4, 0x38, 0x0f, 0x7d, 0x1f, 0x39, 0x7a, 0x12, 0x65, 0x3e,
    0x09, 0x9c, 0xb9, 0x3d, 0xfd, 0xda, 0x5d, 0xbd, 0x79, 0x34,
    0x4e, 0x3e, 0x94, 0xbc, 0xec, 0x3d, 0x11, 0x09, 0xfd, 0x3d,
    0x78, 0xa8, 0x97, 0x3d, 0xb7, 0xd2, 0x20, 0xbd, 0xcd, 0x37,
    0x08, 0x3e, 0x69, 0x39, 0x11, 0xba, 0xb5, 0xbd, 0x39, 0xbd,
    0xf2, 0x1b, 0xb1, 0x3b, 0xde, 0x9d, 0x57, 0xbd, 0x5f, 0xdf,
    0xa3, 0xbd, 0x58, 0xb8, 0x33, 0xbd, 0x55, 0x72, 0xb1, 0xbd,
    0xf8, 0x2a, 0xd9, 0xbd, 0xa2, 0xb4, 0x60, 0xbe, 0x24, 0x25,
    0x97, 0x3d, 0x4f, 0x52, 0x6d, 0xbe, 0x3a, 0x9d, 0x26, 0xbd,
    0x4a, 0x1a, 0x5a, 0xbe, 0xeb, 0x18, 0x3f, 0xbd, 0x31, 0xeb,
    0x8f, 0x3d, 0x75, 0x0b, 0xa4, 0x3d, 0x05, 0xb8, 0x67, 0x3e,
    0x73, 0xd9, 0xfd, 0xbd, 0x4c, 0xfe, 0xbe, 0x3c, 0x0a, 0x38,
    0xae, 0xbd, 0xb4, 0x88, 0x28, 0xbd, 0xe7, 0xf4, 0xbb, 0xbd,
    0xb2, 0x1e, 0x0f, 0xbe, 0x7d, 0x65, 0x50, 0x3e, 0x1c, 0x2a,
    0x65, 0x3d, 0x85, 0x3c, 0x2d, 0x3d, 0x64, 0x43, 0x4e, 0x3d,
    0xf2, 0x35, 0x7c, 0x3d, 0x93, 0xda, 0x0a, 0x3d, 0x72, 0x88,
    0x14, 0xbe, 0x03, 0x0a, 0xcf, 0x3d, 0xa0, 0x4d, 0xd3, 0xbd,
    0x6d, 0xef, 0x1b, 0xbd, 0xa4, 0xb6, 0xcb, 0x3d, 0x13, 0x35,
    0x4a, 0xbe, 0x73, 0x58, 0x40, 0xbe, 0x85, 0x4b, 0x4b, 0xbe,
    0x47, 0xeb, 0x74, 0xbc, 0x92, 0x41, 0x6f, 0x3a, 0x4e, 0xb7,
    0xa3, 0x3d, 0x62, 0xa7, 0xdf, 0x3d, 0x53, 0x67, 0xf5, 0xbd,
    0x01, 0x3b, 0xa8, 0x3d, 0x37, 0x5c, 0xd0, 0xbd, 0x17, 0xb5,
    0x25, 0x3d, 0x1d, 0x18, 0x2e, 0xbe, 0x72, 0x48, 0x30, 0xbd,
    0xdd, 0xbe, 0x54, 0x3e, 0x60, 0x13, 0xa2, 0x3d, 0x83, 0x5c,
    0xc4, 0xbd, 0xe0, 0x99, 0xd1, 0x3d, 0x2c, 0x23, 0x82, 0x3d,
    0x39, 0x59, 0xa0, 0x3d, 0xf5, 0xfb, 0xfb, 0x3b, 0x04, 0xa4,
    0xda, 0x3c, 0xe4, 0x0b, 0x9c, 0xbd, 0xe0, 0xce, 0xdc, 0xbd,
    0x6b, 0x79, 0xd0, 0x3d, 0x50, 0x6d, 0x89, 0xbe, 0xdb, 0xc7,
    0x46, 0xbe, 0x8a, 0xd5, 0x82, 0xbe, 0x58, 0x33, 0xee, 0x3c,
    0xbd, 0x8a, 0xbd, 0x3c, 0xc3, 0x63, 0x8f, 0x3c, 0xc2, 0xb9,
    0xd8, 0x3d, 0xee, 0xa3, 0x9d, 0xbd, 0x83, 0x0b, 0x33, 0x3e,
    0x8d, 0xd0, 0x32, 0xbe, 0x5e, 0xf7, 0x05, 0xbe, 0x37, 0x86,
    0x60, 0xbe, 0xd4, 0xd9, 0x2f, 0x3d, 0x18, 0x47, 0x4a, 0xbe,
    0x02, 0xe1, 0xc5, 0xbc, 0x81, 0x07, 0xb5, 0xbc, 0xad, 0x3a,
    0xc6, 0xbd, 0xa0, 0x7b, 0x0e, 0xbe, 0x0c, 0xeb, 0x77, 0xbe,
    0x74, 0x39, 0x48, 0xbd, 0x5d, 0xeb, 0x8e, 0x3c, 0x0f, 0xb6,
    0x95, 0x3d, 0x2d, 0x16, 0xc7, 0x3d, 0x78, 0x97, 0x1f, 0xbe,
    0xbe, 0x3c, 0x53, 0x3e, 0x88, 0x06, 0x9c, 0xbd, 0xae, 0x24,
    0x55, 0xbd, 0xea, 0xcb, 0xe4, 0xbc, 0x5d, 0x92, 0x41, 0xbe,
    0xf9, 0x1c, 0xdc, 0xbc, 0x28, 0xad, 0xd7, 0x3d, 0xb6, 0x78,
    0x8a, 0x3d, 0xec, 0x55, 0x24, 0x3c, 0x35, 0xd6, 0x53, 0x3d,
    0x79, 0x07, 0x27, 0xbb, 0x7a, 0x89, 0x3e, 0xbd, 0x36, 0xf9,
    0x82, 0x39, 0xc1, 0x2e, 0xdd, 0xbd, 0x78, 0xee, 0x18, 0xbe,
    0x0c, 0x4b, 0xf7, 0xba, 0x58, 0x9c, 0x61, 0xbe, 0x46, 0x96,
    0x98, 0xbd, 0xb1, 0x47, 0xfa, 0xbc, 0x1c, 0x9c, 0x21, 0x3d,
    0x3a, 0xb0, 0x6f, 0x3d, 0x15, 0xf6, 0x8c, 0x3d, 0x7d, 0xda,
    0x1b, 0x3e, 0xb7, 0x0b, 0x05, 0xbe, 0x8b, 0xd2, 0xd3, 0x3c,
    0x19, 0x81, 0x68, 0xbd, 0xec, 0x3b, 0x19, 0x3d, 0x5e, 0xbd,
    0xb2, 0xbd, 0x2f, 0x41, 0xe8, 0xbd, 0xd3, 0x0c, 0x99, 0x3d,
    0x9d, 0xb1, 0x8b, 0xbc, 0x7d, 0xa3, 0x0f, 0x3d, 0xd6, 0xf1,
    0x1c, 0x38, 0xb8, 0x70, 0x7d, 0x3d, 0x9b, 0xa4, 0x31, 0xbd,
    0x72, 0x69, 0xbf, 0x3d, 0xb4, 0x3f, 0xc1, 0x3c, 0x04, 0xa7,
    0x59, 0xbe, 0x48, 0x56, 0x8b, 0xbd, 0xa3, 0x36, 0xb5, 0x3d,
    0x58, 0x53, 0x7d, 0xbd, 0x90, 0x75, 0xdc, 0xbd, 0x54, 0xfa,
    0x6e, 0xbc, 0x46, 0x72, 0x38, 0xbe, 0x36, 0x3a, 0x4b, 0x3c,
    0x2b, 0x58, 0x05, 0x3e, 0xa1, 0xc5, 0x84, 0x3e, 0x36, 0x23,
    0x87, 0xbd, 0x15, 0xbf, 0xb1, 0x3c, 0x8f, 0x08, 0xb9, 0xbd,
    0x71, 0x50, 0x07, 0xbe, 0x59, 0x13, 0x0e, 0xbe, 0x82, 0x20,
    0x33, 0xbe, 0x9e, 0x77, 0xfe, 0x3d, 0x0b, 0x62, 0x0f, 0x3d,
    0x4a, 0xb1, 0x8b, 0x3b, 0xff, 0xf4, 0xd1, 0x3d, 0xf8, 0xdb,
    0x48, 0x3d, 0xe3, 0x29, 0x01, 0x3a, 0xa0, 0x52, 0xc8, 0x3d,
    0x29, 0x6e, 0xaf, 0x3c, 0x56, 0xa3, 0xf2, 0xbd, 0x32, 0xe3,
    0x6c, 0xbe, 0xd6, 0xfb, 0x1f, 0x3c, 0x53, 0x13, 0x9a, 0xbe,
    0xf3, 0xf2, 0x43, 0x3e, 0xf9, 0x9a, 0xfb, 0x3d, 0xc4, 0x94,
    0xca, 0x3d, 0x02, 0xaf, 0xd0, 0x3d, 0x94, 0x10, 0x88, 0x3d,
    0x6e, 0x85, 0xfd, 0x3d, 0x48, 0x5a, 0xca, 0x3b, 0xac, 0x82,
    0x74, 0x3c, 0x86, 0xb0, 0x80, 0x3d, 0xb4, 0x3a, 0x0c, 0xbe,
    0x20, 0x25, 0xa2, 0x3d, 0x3f, 0xe0, 0x62, 0xbd, 0x5b, 0xfe,
    0xe8, 0x3d, 0xa5, 0x7e, 0x00, 0xbc, 0x8e, 0x63, 0xb9, 0xbd,
    0x6a, 0x5a, 0x20, 0x3c, 0x24, 0x03, 0x18, 0xbe, 0x43, 0x7c,
    0xfd, 0x3c, 0x61, 0xd9, 0x1c, 0xbe, 0x20, 0xfb, 0x03, 0xbd,
    0x8d, 0x5d, 0x34, 0xbe, 0x65, 0xeb, 0x32, 0xbe, 0x77, 0xf6,
    0xcc, 0x3a, 0x94, 0x40, 0x64, 0xbe, 0x58, 0x13, 0x91, 0x3d,
    0x91, 0x8c, 0x08, 0xbd, 0x01, 0x6e, 0xe6, 0x3d, 0xe3, 0x16,
    0xa3, 0x3d, 0x11, 0x63, 0x9e, 0x3d, 0x79, 0xc6, 0xb9, 0x3d,
    0xb5, 0x7b, 0x08, 0xbd, 0x69, 0x0b, 0x61, 0x3d, 0xaa, 0x33,
    0x41, 0xbd, 0xf3, 0x00, 0x82, 0xbe, 0xb7, 0x6f, 0xa8, 0x3d,
    0x37, 0x32, 0xca, 0xbd, 0xef, 0x03, 0xb6, 0x3d, 0x35, 0xae,
    0x93, 0xbc, 0xa3, 0x0d, 0x27, 0xbe, 0xb4, 0xa4, 0xae, 0x3d,
    0xa2, 0x0f, 0x42, 0xbd, 0x80, 0xc7, 0xe1, 0xbd, 0xda, 0xfa,
    0x42, 0xbe, 0x9b, 0x39, 0x27, 0xbe, 0xfb, 0x6d, 0x6a, 0xbe,
    0x2b, 0x11, 0x09, 0xbe, 0xc2, 0xd9, 0x69, 0x3d, 0x58, 0x2e,
    0x94, 0xbe, 0x6b, 0x00, 0xa9, 0x3d, 0x43, 0x02, 0x14, 0x3e,
    0x6a, 0x32, 0x07, 0xbb, 0x61, 0x1f, 0x4e, 0x3d, 0x1d, 0x0b,
    0x1c, 0xbd, 0x79, 0xfc, 0x0f, 0x3e, 0x65, 0x8b, 0x60, 0x3c,
    0x82, 0xef, 0x13, 0x3d, 0x9d, 0xa0, 0x4b, 0x3d, 0x6e, 0x93,
    0x36, 0xbe, 0x61, 0x80, 0x0c, 0x3d, 0xbe, 0x2d, 0x1c, 0xbd,
    0xd7, 0xf1, 0xf1, 0x3c, 0xc4, 0xd8, 0xa8, 0xbc, 0xd3, 0x40,
    0xbc, 0xbd, 0x93, 0x11, 0x41, 0x3c, 0x67, 0xf9, 0xa8, 0xbc,
    0x54, 0xa2, 0xae, 0xbd, 0xa3, 0x90, 0x0e, 0xbe, 0x13, 0xa9,
    0xdb, 0xbc, 0x05, 0x32, 0x8d, 0x3d, 0x44, 0x7a, 0xfd, 0xbd,
    0x57, 0x19, 0x1b, 0xbd, 0x19, 0xb1, 0x42, 0x3d, 0xe2, 0xd4,
    0xb5, 0x3d, 0x6b, 0x46, 0x20, 0xbe, 0x64, 0x00, 0x53, 0x3e,
    0xae, 0xe3, 0x83, 0x3c, 0xbc, 0x2c, 0x1e, 0xbc, 0xbb, 0x80,
    0x61, 0x3d, 0x7b, 0x94, 0x79, 0xbd, 0x9f, 0xad, 0x1b, 0xbe,
    0x39, 0x78, 0x06, 0x3e, 0x39, 0x15, 0xb6, 0x3d, 0x13, 0xc3,
    0xf3, 0x3d, 0xae, 0x00, 0xa0, 0xbc, 0xfc, 0xad, 0xca, 0xbb,
    0x0d, 0x90, 0x5a, 0xbe, 0x2c, 0x89, 0x9a, 0xbd, 0x38, 0x42,
    0x35, 0xbe, 0xd0, 0x3c, 0x8a, 0x3d, 0x90, 0xd3, 0x49, 0x3d,
    0x0a, 0xd9, 0x3a, 0x3b, 0xf2, 0x98, 0xa1, 0xbd, 0xfd, 0x77,
    0xba, 0x3d, 0x2c, 0x25, 0xf0, 0xbd, 0x6d, 0xbe, 0xf4, 0xbc,
    0x4f, 0xb1, 0x22, 0xbe, 0xec, 0x98, 0x6c, 0x3e, 0xfc, 0x69,
    0x23, 0xbe, 0x53, 0xa3, 0x33, 0x3e, 0x5a, 0xde, 0x38, 0x3d,
    0x69, 0x44, 0x08, 0xbe, 0x33, 0x15, 0xd5, 0xbd, 0x6a, 0x4f,
    0xf1, 0xbc, 0xa2, 0xb2, 0xdb, 0xbc, 0x91, 0xee, 0x23, 0x3e,
    0xe7, 0xe8, 0xb9, 0x3d, 0x32, 0x14, 0xde, 0x3c, 0x92, 0x1f,
    0x18, 0xbd, 0x30, 0x69, 0x68, 0x3d, 0x7b, 0x8c, 0x4c, 0xbe,
    0x7c, 0x39, 0x9b, 0xbb, 0x9e, 0x75, 0x2c, 0xbe, 0x7e, 0xea,
    0x0a, 0x3e, 0xaf, 0x5f, 0x8e, 0xbc, 0x9a, 0x50, 0xe8, 0x3d,
    0xb6, 0x42, 0xb2, 0x3d, 0xc9, 0x6e, 0x15, 0x3d, 0x30, 0x3f,
    0xa8, 0x3d, 0x36, 0x96, 0xe3, 0x3d, 0xfb, 0xc4, 0x9c, 0x3d,
    0x27, 0x9d, 0xae, 0x3a, 0x3a, 0xa9, 0x88, 0xbc, 0x02, 0xe5,
    0x6b, 0x3d, 0xa4, 0x22, 0xf7, 0x3b, 0xe5, 0x84, 0x18, 0xbe,
    0x63, 0x30, 0x2c, 0x3d, 0x5b, 0xa6, 0xbf, 0xbd, 0xc0, 0xd1,
    0x07, 0xbd, 0x1d, 0xfa, 0x5d, 0x3e, 0x3a, 0x96, 0x5d, 0x3d,
    0x75, 0xa3, 0xb8, 0x3d, 0x88, 0xe9, 0x20, 0xbe, 0x9a, 0xc1,
    0x17, 0xbe, 0x2f, 0x61, 0x29, 0xbe, 0x58, 0xc6, 0xc2, 0xbd,
    0xa2, 0xb1, 0x25, 0xbd, 0xba, 0x4e, 0x6b, 0x3e, 0x05, 0xbc,
    0x18, 0x3e, 0x87, 0xaf, 0x93, 0x3b, 0x30, 0xc9, 0x99, 0xbd,
    0x29, 0xc5, 0x48, 0xbc, 0x32, 0xaa, 0xfb, 0x3c, 0x42, 0x3e,
    0x3d, 0x3d, 0x18, 0x49, 0x5a, 0xbe, 0x18, 0xa2, 0xd9, 0xbd,
    0xd8, 0xf4, 0x94, 0xbd, 0x1d, 0x55, 0x5b, 0x3d, 0xdf, 0x08,
    0x79, 0x3d, 0x76, 0x42, 0x01, 0x3d, 0x63, 0x66, 0xb0, 0xbd,
    0xf5, 0x52, 0xae, 0xbd, 0x72, 0xfd, 0x85, 0xbc, 0xf2, 0x7e,
    0x65, 0xbe, 0x8c, 0x43, 0x5b, 0x3e, 0x28, 0xd0, 0xd6, 0xbc,
    0xf2, 0xc5, 0xb5, 0x3d, 0xf4, 0x4f, 0xd8, 0xbb, 0x61, 0x5b,
    0x82, 0x3d, 0x06, 0xe7, 0xa0, 0x3d, 0xfa, 0x6f, 0x06, 0x3e,
    0xe1, 0xce, 0x48, 0xbd, 0x63, 0x33, 0xfa, 0x3d, 0x7a, 0xc8,
    0x80, 0xbd, 0x20, 0x59, 0x0c, 0x3d, 0x4f, 0xb4, 0xde, 0xbd,
    0x77, 0x6f, 0x4a, 0x3e, 0x1a, 0xfa, 0xeb, 0xbb, 0x58, 0xc1,
    0x12, 0xbd, 0x09, 0xde, 0xbf, 0x3d, 0xb8, 0x02, 0xc6, 0x3c,
    0x3d, 0xb2, 0x74, 0x3c, 0x37, 0xfe, 0xa7, 0xbd, 0x19, 0xbf,
    0x7a, 0xbd, 0xd6, 0x5f, 0xa1, 0xbd, 0xeb, 0x24, 0x91, 0xbc,
    0xfc, 0x30, 0x6b, 0x3c, 0x7c, 0xb0, 0x13, 0xbe, 0xab, 0x35,
    0xc0, 0x3d, 0x1b, 0xe3, 0x31, 0xbe, 0x96, 0x7e, 0x26, 0xbe,
    0x23, 0x77, 0xbb, 0xbd, 0xd8, 0x51, 0x06, 0xbc, 0x1c, 0x1c,
    0xc6, 0x3d, 0x02, 0x9e, 0x49, 0xbe, 0x2c, 0xc6, 0xf1, 0xbd,
    0xa2, 0x2d, 0x2e, 0x3e, 0x13, 0x96, 0xec, 0xbd, 0x2b, 0xe9,
    0xff, 0x3c, 0x80, 0x4b, 0x55, 0xbe, 0xef, 0x35, 0x08, 0x3e,
    0xe0, 0xd5, 0xef, 0x3d, 0x0c, 0x79, 0x02, 0xbe, 0xbe, 0x13,
    0x1f, 0xb9, 0xd5, 0x4c, 0xb6, 0xbc, 0xb5, 0x6f, 0x0a, 0x3e,
    0x91, 0xb0, 0xa9, 0x3d, 0x06, 0x64, 0x14, 0x3a, 0xb2, 0x47,
    0xa4, 0xbc, 0xf0, 0x21, 0x19, 0xbe, 0xc7, 0xbc, 0xea, 0x3d,
    0x20, 0xc4, 0x5f, 0xbe, 0xc9, 0x8b, 0xfa, 0x3b, 0x2d, 0x65,
    0x25, 0xbd, 0x15, 0x34, 0x1d, 0x3d, 0xcb, 0xfa, 0x04, 0xbe,
    0xd0, 0x60, 0x2a, 0xbe, 0x60, 0xc1, 0x01, 0x3e, 0x7d, 0x29,
    0xd5, 0xbd, 0xb9, 0xd4, 0xf9, 0xbd, 0x4f, 0xd6, 0xda, 0x3d,
    0x42, 0x22, 0xef, 0x3c, 0x37, 0x1f, 0x90, 0x3d, 0x47, 0x08,
    0x20, 0x3c, 0xf1, 0x36, 0x94, 0x3c, 0x0b, 0x5c, 0xa1, 0xbd,
    0xf6, 0xe7, 0xa9, 0x3d, 0xa6, 0x40, 0xe4, 0xbd, 0xc7, 0xdd,
    0x0c, 0x3e, 0x25, 0xe8, 0x16, 0x3b, 0x08, 0x7a, 0x7c, 0x3d,
    0x6c, 0x40, 0x8e, 0xbe, 0x08, 0xd3, 0xbd, 0x3d, 0x51, 0x20,
    0x55, 0xbc, 0xe2, 0xf0, 0x53, 0xbe, 0xda, 0xaa, 0x09, 0x3e,
    0x50, 0x0d, 0xd4, 0xbd, 0x6b, 0x44, 0x6e, 0x3e, 0x37, 0xb7,
    0x31, 0x3c, 0x63, 0xa0, 0xab, 0xbc, 0xbb, 0x78, 0x28, 0x3e,
    0x1e, 0xdc, 0x1f, 0xbe, 0x55, 0x6c, 0x5f, 0x3e, 0x02, 0xd2,
    0x54, 0x3e, 0x4f, 0x55, 0x39, 0x3e, 0xd6, 0x94, 0x12, 0x3e,
    0xad, 0x04, 0x04, 0xbe, 0xf6, 0x94, 0x0a, 0x3e, 0x12, 0xc4,
    0x30, 0x3e, 0x04, 0x4b, 0xf0, 0xbd, 0x60, 0xc9, 0x42, 0x3e,
    0x24, 0xfc, 0x81, 0xbc, 0xdf, 0xd6, 0x40, 0x3d, 0x09, 0xc6,
    0x98, 0x3d, 0x7d, 0x17, 0xc9, 0x3c, 0xd7, 0xde, 0x63, 0xbe,
    0x6a, 0xb9, 0xa6, 0x3e, 0xdf, 0x7a, 0x4e, 0xbd, 0xce, 0x7d,
    0x65, 0xbc, 0xc5, 0xd0, 0xff, 0x3d, 0xe2, 0xbe, 0x12, 0xbd,
    0x51, 0xd4, 0x47, 0x3e, 0x56, 0x04, 0x30, 0x3d, 0x48, 0x1e,
    0xed, 0x3d, 0xa9, 0x22, 0x18, 0x3e, 0xaf, 0xa7, 0x5d, 0xbd,
    0xe2, 0x48, 0x7b, 0x3c, 0xda, 0xb9, 0x05, 0x3e, 0xbb, 0xa7,
    0x5b, 0x3d, 0x67, 0x93, 0x71, 0x3d, 0xf7, 0x3d, 0xc6, 0xbd,
    0xc3, 0x2a, 0x39, 0x3e, 0x40, 0xe5, 0x09, 0x3e, 0xe9, 0x61,
    0xe6, 0xbc, 0xb6, 0x28, 0x86, 0x3e, 0x59, 0x34, 0xe4, 0xbd,
    0xed, 0x0b, 0x07, 0xbc, 0x5c, 0x4f, 0x1d, 0x3e, 0x9f, 0x1c,
    0x6e, 0xbd, 0xeb, 0x78, 0xf8, 0xbd, 0x4e, 0x9a, 0xda, 0x3d,
    0x29, 0xab, 0x72, 0x3d, 0xe9, 0x6d, 0x42, 0xbe, 0xb8, 0x44,
    0x93, 0x3d, 0x64, 0x3e, 0xb3, 0xbd, 0x69, 0x2c, 0xf6, 0x3d,
    0xa0, 0x0f, 0xa0, 0xbd, 0xd7, 0x13, 0xe9, 0x3c, 0xe8, 0xff,
    0x84, 0xbd, 0xb6, 0xf5, 0x85, 0xbc, 0x2b, 0xef, 0x92, 0x3e,
    0xb9, 0x64, 0x54, 0x3e, 0xc1, 0x33, 0x7a, 0x3d, 0x40, 0x52,
    0x2f, 0x3e, 0xe7, 0xd2, 0x49, 0xbd, 0x50, 0x12, 0x93, 0xbd,
    0xf6, 0x68, 0xc8, 0x3d, 0xed, 0xa1, 0x85, 0x3d, 0xdb, 0xff,
    0x39, 0xbe, 0x56, 0x10, 0x1a, 0x3e, 0x88, 0xd9, 0x91, 0xbe,
    0x77, 0x9c, 0x21, 0x3e, 0xfc, 0x29, 0x95, 0xbd, 0xf8, 0xef,
    0x97, 0x3b, 0x14, 0x91, 0x33, 0x3c, 0xba, 0x81, 0x90, 0xbd,
    0x2d, 0xd6, 0x0f, 0x3d, 0x93, 0xba, 0xe5, 0x3d, 0x71, 0x18,
    0x9a, 0x3d, 0xc1, 0xa6, 0xcc, 0xbc, 0x47, 0x08, 0xaa, 0xbd,
    0x5b, 0x98, 0x2f, 0xbd, 0x69, 0x92, 0xd2, 0x3c, 0xaa, 0x57,
    0x12, 0xbe, 0x5f, 0xb2, 0xb7, 0x3c, 0x39, 0x99, 0xe1, 0x3d,
    0xe4, 0x41, 0xc9, 0x3d, 0x0d, 0x0e, 0x63, 0x3e, 0x56, 0x85,
    0x22, 0xbe, 0xc9, 0xd4, 0x3f, 0x3d, 0xa4, 0xa0, 0xad, 0xbd,
    0x5e, 0x70, 0xc4, 0x3d, 0x14, 0x57, 0x0c, 0xbe, 0x21, 0x5a,
    0x74, 0x3d, 0xd9, 0x7a, 0x89, 0xbe, 0x8b, 0x46, 0xed, 0x3c,
    0xb8, 0x00, 0x5c, 0x3c, 0xb1, 0x39, 0x93, 0xbd, 0xf0, 0xd3,
    0x3a, 0x3d, 0xd7, 0x2f, 0x84, 0xbd, 0xdc, 0xf9, 0x83, 0xbd,
    0xb3, 0xeb, 0x20, 0x3e, 0xb6, 0x8a, 0x49, 0x3e, 0xd9, 0x7b,
    0xe9, 0xbc, 0x7f, 0x62, 0x6b, 0xbd, 0x17, 0x00, 0x8b, 0xbc,
    0xfd, 0x98, 0x58, 0xbd, 0x93, 0x39, 0x1f, 0xbd, 0x2f, 0xe8,
    0xab, 0xbd, 0xb7, 0x68, 0x1d, 0x3e, 0x9d, 0x43, 0x9a, 0x3d,
    0x8d, 0xe8, 0x35, 0xb7, 0x3e, 0x8d, 0x13, 0x3c, 0xd6, 0xfb,
    0x17, 0xbe, 0xb9, 0xfe, 0x5e, 0xbc, 0xa4, 0x77, 0xb9, 0xbc,
    0xd5, 0xf5, 0x14, 0xbe, 0x83, 0x47, 0x85, 0x3e, 0xc8, 0xc6,
    0x94, 0xbe, 0x0b, 0x6b, 0x62, 0x3d, 0xd9, 0xa4, 0xc8, 0x3d,
    0x92, 0x6b, 0x39, 0x3b, 0xab, 0x68, 0x30, 0xbe, 0x35, 0xab,
    0xad, 0xbc, 0xdf, 0xec, 0xb1, 0xbd, 0x25, 0x06, 0x80, 0x3d,
    0x15, 0x8d, 0x10, 0x3e, 0xeb, 0x5c, 0x65, 0x3d, 0xa2, 0x76,
    0x9f, 0xbd, 0x9c, 0xf6, 0xfb, 0x3d, 0x04, 0x78, 0x3f, 0xbe,
    0xe7, 0x45, 0x46, 0xba, 0x33, 0x9d, 0x88, 0x3d, 0xa0, 0xb9,
    0xa4, 0x3d, 0x83, 0x0b, 0xc8, 0x3d, 0xe0, 0xb0, 0x31, 0x3d,
    0x45, 0x8c, 0x8e, 0xbd, 0x44, 0x9f, 0x03, 0x3d, 0x78, 0x8d,
    0x3b, 0x3e, 0xc7, 0xc5, 0xea, 0x3b, 0x7e, 0x8b, 0x1b, 0x3c,
    0xf2, 0xc1, 0x2f, 0x3e, 0x9c, 0xfe, 0x51, 0x3e, 0xd0, 0x5b,
    0x0a, 0xbe, 0x25, 0xcd, 0x9d, 0x3d, 0xb4, 0x4b, 0xa5, 0x3d,
    0xcb, 0x3d, 0x85, 0x3d, 0xd7, 0xf2, 0x1c, 0xbe, 0xf9, 0x56,
    0xbf, 0x3d, 0x55, 0xe8, 0x0c, 0xbd, 0x59, 0x9b, 0x49, 0x3e,
    0xcb, 0x01, 0x14, 0x3d, 0x50, 0xd5, 0x63, 0xbd, 0xae, 0xda,
    0x0e, 0x3c, 0x6d, 0x75, 0xb5, 0x3d, 0xcb, 0xb8, 0x11, 0xbe,
    0xb2, 0x2e, 0xdf, 0x3d, 0x2e, 0xfb, 0x11, 0x3e, 0x8d, 0xcb,
    0x4c, 0x3e, 0xd3, 0x55, 0xb5, 0xbd, 0x6f, 0xf0, 0x65, 0xbd,
    0x22, 0xf9, 0xd2, 0xbd, 0xae, 0xac, 0x53, 0x3d, 0xa8, 0xea,
    0x31, 0x3d, 0xad, 0xa6, 0x07, 0x3e, 0x1a, 0xd7, 0x0e, 0x3e,
    0x57, 0xdd, 0x63, 0x3e, 0x00, 0x14, 0x79, 0x3c, 0xfd, 0x0a,
    0xb1, 0xbd, 0x7e, 0x34, 0x09, 0x3c, 0x12, 0x18, 0xad, 0xbd,
    0xe0, 0x87, 0xe8, 0xbd, 0x37, 0x12, 0x2a, 0x3e, 0x6a, 0x2f,
    0xab, 0xbc, 0x02, 0xf8, 0xa4, 0x3d, 0x05, 0x18, 0xac, 0x3a,
    0x68, 0x34, 0xa4, 0x3a, 0x49, 0x6b, 0x96, 0x3d, 0x5f, 0xa3,
    0x8c, 0x3d, 0x54, 0x9d, 0x93, 0xbd, 0x1a, 0x86, 0x9b, 0x3c,
    0x97, 0x74, 0x85, 0x3c, 0xdd, 0x2d, 0x69, 0x3d, 0x47, 0xe6,
    0x2a, 0x3c, 0xd3, 0x7d, 0x97, 0xbc, 0xfc, 0xac, 0xa0, 0x3d,
    0x04, 0xff, 0x5d, 0xbd, 0x2b, 0x25, 0x8c, 0xbc, 0xd0, 0x44,
    0xaa, 0x3d, 0x76, 0xd1, 0x12, 0x3e, 0xdb, 0xd3, 0xd1, 0x3d,
    0x90, 0x9e, 0x35, 0xbc, 0x50, 0x84, 0x26, 0x3d, 0x7a, 0x34,
    0x55, 0x3e, 0xa8, 0xbb, 0x04, 0x3d, 0xd8, 0xe3, 0xb8, 0xbd,
    0xe6, 0xae, 0x3f, 0x3e, 0x7c, 0xe8, 0x76, 0x3d, 0x16, 0x49,
    0x45, 0x3e, 0x13, 0x7b, 0x48, 0x3d, 0x25, 0x84, 0x54, 0xbe,
    0xe3, 0x0c, 0xee, 0x3d, 0xb8, 0x02, 0x52, 0x3e, 0xf0, 0x0b,
    0x07, 0x3d, 0x3e, 0x71, 0x20, 0x3e, 0x20, 0x54, 0x8d, 0x3d,
    0x32, 0x09, 0x7a, 0x3d, 0x2b, 0xb3, 0xf3, 0x3c, 0xb4, 0x7d,
    0x6d, 0x3d, 0x0f, 0x1a, 0xd9, 0x3e, 0xd7, 0xa8, 0x44, 0x3e,
    0xdc, 0xfb, 0xbb, 0x3e, 0x76, 0xb4, 0x07, 0x3d, 0xb0, 0xc2,
    0x6f, 0x3d, 0x32, 0x80, 0xc6, 0xbe, 0x68, 0x76, 0x45, 0x3d,
    0x8f, 0x23, 0xb2, 0xbe, 0x98, 0x87, 0xd5, 0xbd, 0x7e, 0x5f,
    0x92, 0x3b, 0xbe, 0x25, 0xfd, 0x3c, 0xc3, 0xce, 0x6b, 0x3d,
    0x55, 0x1e, 0x55, 0xbd, 0x53, 0xe9, 0x49, 0xbe, 0x47, 0x75,
    0x90, 0xbb, 0x73, 0xff, 0xbc, 0xbd, 0xcf, 0x4e, 0xcf, 0xbd,
    0xef, 0x79, 0x44, 0xbe, 0x0f, 0x1e, 0xf8, 0x3d, 0x7a, 0xb9,
    0xb7, 0x3d, 0x48, 0x28, 0x4e, 0xbd, 0x9e, 0x41, 0xcb, 0xbc,
    0x7c, 0xd6, 0x2f, 0x3d, 0x69, 0xe5, 0xff, 0xbc, 0x73, 0xc4,
    0x40, 0x3e, 0xa3, 0xa8, 0xe5, 0x3d, 0x53, 0xcc, 0x73, 0xbd,
    0x12, 0xcc, 0x3f, 0x3d, 0x8d, 0xdd, 0x13, 0x3d, 0x9f, 0xc8,
    0x16, 0xbd, 0x4f, 0xf0, 0x68, 0xbd, 0xbc, 0x70, 0xc2, 0x3c,
    0xa5, 0x9a, 0x19, 0xbe, 0xfe, 0x7c, 0x3b, 0x3d, 0xf3, 0x69,
    0x9d, 0xbd, 0x6a, 0x93, 0xc4, 0x3d, 0xc3, 0xbf, 0xc5, 0x3d,
    0xa8, 0x56, 0x6d, 0xbe, 0x98, 0x25, 0xca, 0x3b, 0x1d, 0xeb,
    0x01, 0xbe, 0x42, 0xba, 0xac, 0xbd, 0x8a, 0xa4, 0x95, 0xbe,
    0x3e, 0x21, 0xb6, 0x3c, 0x96, 0x6c, 0x23, 0x3e, 0x1b, 0x95,
    0xab, 0x3d, 0x91, 0xe6, 0x82, 0xbd, 0x88, 0xed, 0xca, 0xbd,
    0xa5, 0xdb, 0xba, 0x3c, 0x17, 0xb1, 0x78, 0xbd, 0x08, 0xf7,
    0x13, 0x3d, 0x06, 0x3a, 0x8d, 0x3d, 0xf6, 0xc7, 0x95, 0xbd,
    0x45, 0x87, 0x49, 0x3c, 0x56, 0xd0, 0x7d, 0x3c, 0x18, 0xd0,
    0x02, 0x3d, 0xfe, 0xdb, 0xb8, 0xbd, 0x64, 0x4c, 0x58, 0xbe,
    0x11, 0xe0, 0xd3, 0xbd, 0x47, 0x89, 0xda, 0xbd, 0xce, 0xa2,
    0x10, 0xbe, 0x81, 0x95, 0xca, 0xbc, 0xcf, 0xaa, 0x64, 0xbd,
    0xdb, 0xb8, 0x27, 0xbe, 0xe6, 0xea, 0xa6, 0xbd, 0xec, 0xda,
    0xf3, 0xbd, 0x55, 0x09, 0x83, 0xbe, 0x89, 0x73, 0x05, 0x3e,
    0xbd, 0xc8, 0xd7, 0x3d, 0xe9, 0x15, 0x38, 0xbc, 0x47, 0x64,
    0xa5, 0x3d, 0x86, 0x1b, 0x00, 0x3c, 0xb3, 0xd6, 0x26, 0xbe,
    0x22, 0x2a, 0xde, 0xbc, 0xbe, 0xed, 0x89, 0xbd, 0x7f, 0xbb,
    0x02, 0x3d, 0x86, 0x50, 0x1a, 0xbd, 0x0e, 0x8c, 0x2e, 0x3e,
    0x65, 0x8e, 0x80, 0xbd, 0x03, 0xb7, 0xcd, 0x3c, 0x09, 0x0e,
    0xc4, 0xbd, 0x6a, 0x36, 0xd9, 0xba, 0xe5, 0xcc, 0xba, 0x3c,
    0x27, 0xf8, 0x0a, 0xbe, 0x1c, 0x2b, 0x3d, 0xbd, 0xed, 0x39,
    0x32, 0xbe, 0xda, 0x94, 0x35, 0xbd, 0xd3, 0x95, 0x48, 0x3d,
    0xaf, 0xa5, 0x97, 0x3d, 0x79, 0x15, 0x2e, 0xbd, 0xc5, 0x38,
    0x52, 0xbd, 0xb1, 0x11, 0x92, 0xbd, 0x59, 0xa3, 0xdc, 0x3d,
    0xd9, 0xb3, 0x28, 0x3d, 0x71, 0xd5, 0xf4, 0x3d, 0x40, 0xa6,
    0xc1, 0x3d, 0x21, 0x6c, 0x9e, 0x3b, 0x98, 0xe3, 0xc4, 0x3d,
    0x71, 0xaa, 0x8f, 0xbd, 0x31, 0x22, 0xce, 0x3d, 0xdc, 0xce,
    0xfa, 0x3b, 0xff, 0x95, 0x41, 0xbe, 0x4c, 0xe2, 0xdd, 0xbd,
    0xa0, 0x2c, 0x17, 0xbe, 0x55, 0xa1, 0x0e, 0x3e, 0xc9, 0x84,
    0x1b, 0x3d, 0x34, 0xf2, 0xf9, 0x3c, 0x3d, 0x20, 0x03, 0xbe,
    0x01, 0xa6, 0xc5, 0xbd, 0x56, 0xf2, 0x26, 0xbe, 0x66, 0xb6,
    0xaa, 0xbd, 0x79, 0xb7, 0x8f, 0x3d, 0x31, 0xdf, 0x8a, 0x3c,
    0x30, 0xc3, 0x13, 0xbe, 0x46, 0xf7, 0x34, 0x3c, 0xad, 0x36,
    0x05, 0xbe, 0x63, 0x01, 0x19, 0x3d, 0x40, 0xa1, 0x01, 0xbe,
    0x1f, 0x6f, 0xd3, 0x3d, 0x69, 0xbc, 0x00, 0x3d, 0x8b, 0x03,
    0x0f, 0xbd, 0xf3, 0x82, 0x66, 0xbd, 0xaa, 0x29, 0xb9, 0x3d,
    0x4d, 0xd0, 0xc7, 0x3b, 0x4b, 0x2b, 0xb9, 0xbb, 0xcd, 0xb9,
    0x22, 0xbe, 0x0a, 0x15, 0xf0, 0xbd, 0x10, 0x1a, 0xba, 0xbc,
    0x91, 0x61, 0xe2, 0x3d, 0x2c, 0x4c, 0x3a, 0x3d, 0x8c, 0xd8,
    0x45, 0xbd, 0xed, 0x12, 0x91, 0xbc, 0x29, 0x02, 0x25, 0xbd,
    0x35, 0xa2, 0xc0, 0xbd, 0x35, 0xf3, 0x10, 0xbe, 0x38, 0xe3,
    0xc1, 0x3d, 0xd4, 0x9b, 0x13, 0xbe, 0x4f, 0x8a, 0x9b, 0xbd,
    0x65, 0x1f, 0xdd, 0xbd, 0xd7, 0x64, 0x43, 0xbc, 0x4e, 0x3e,
    0x1d, 0x3e, 0x80, 0xa9, 0xe6, 0xbd, 0x8f, 0x9f, 0x9a, 0x3d,
    0x1c, 0xd7, 0x49, 0x3d, 0x48, 0xb9, 0x46, 0xbc, 0xcf, 0x81,
    0xc4, 0xbb, 0x41, 0x28, 0x17, 0x3e, 0x28, 0x7b, 0x85, 0xbd,
    0xea, 0xe7, 0x98, 0xbd, 0x87, 0x21, 0xf3, 0xbb, 0x1b, 0x5c,
    0xe6, 0x3c, 0x00, 0x94, 0x10, 0xbe, 0xe7, 0xbb, 0xaa, 0xbc,
    0x32, 0x92, 0x05, 0x3d, 0x77, 0x62, 0x0e, 0xbe, 0x7c, 0xc8,
    0x2c, 0xbc, 0xe0, 0x7f, 0x33, 0xbe, 0x17, 0x12, 0x1b, 0xbe,
    0xd5, 0xc9, 0x91, 0x3c, 0x4d, 0x5c, 0xa4, 0x3d, 0x32, 0x5e,
    0xba, 0xbd, 0x0f, 0x3c, 0xdc, 0xbd, 0xe6, 0x2f, 0x46, 0xbe,
    0x4d, 0xca, 0x23, 0x3c, 0xbd, 0x26, 0x4f, 0xbd, 0x2f, 0xa8,
    0xfa, 0x3d, 0x86, 0xd0, 0x19, 0xbc, 0x20, 0x09, 0xb1, 0x3d,
    0x57, 0xfd, 0x1e, 0x3c, 0x2b, 0x3d, 0xd4, 0x3d, 0x8d, 0x40,
    0x38, 0x3d, 0x7e, 0x34, 0x9a, 0x3e, 0xb9, 0x49, 0x4b, 0xbe,
    0x47, 0xa3, 0x7c, 0xbd, 0xd9, 0xa1, 0xc9, 0xbd, 0x68, 0x07,
    0x0b, 0xbe, 0x35, 0xe3, 0x90, 0x3d, 0x27, 0x23, 0xc6, 0xbd,
    0xa0, 0x47, 0x30, 0x3d, 0x97, 0x5e, 0x52, 0x3d, 0xd8, 0x2d,
    0x8a, 0x3c, 0x40, 0x6b, 0x65, 0xbd, 0x81, 0xbf, 0xd0, 0xb7,
    0xbf, 0xb3, 0x30, 0xbd, 0x71, 0xc7, 0x27, 0xbe, 0xa4, 0x11,
    0x6c, 0xbe, 0x53, 0x5e, 0x00, 0xbe, 0x85, 0xf6, 0xeb, 0xbd,
    0xae, 0x24, 0x19, 0x3e, 0x0a, 0x4b, 0x7f, 0x3d, 0xfd, 0xf3,
    0x4a, 0x3d, 0x5e, 0x62, 0x72, 0x3d, 0xa4, 0xb3, 0x85, 0xbd,
    0x33, 0x94, 0x90, 0xbd, 0x2e, 0x56, 0x69, 0x3c, 0xa3, 0xed,
    0x87, 0x3e, 0x4f, 0x78, 0x8c, 0x3c, 0xdb, 0xd6, 0x9f, 0x3d,
    0x25, 0x58, 0x49, 0xbd, 0x1f, 0x2e, 0xea, 0xbd, 0x8a, 0x66,
    0x05, 0x3e, 0xf7, 0x2c, 0x29, 0xbc, 0xa5, 0xa4, 0xcd, 0x3d,
    0x8e, 0x97, 0xca, 0x3c, 0x9a, 0x71, 0xd5, 0xbd, 0x6a, 0x12,
    0xe3, 0x3d, 0x95, 0xa0, 0xe9, 0xbd, 0x43, 0xf2, 0xc5, 0x3c,
    0x26, 0xb1, 0x2d, 0xbe, 0xd2, 0xce, 0xf3, 0xbd, 0x50, 0x89,
    0x50, 0xbe, 0x44, 0xc0, 0xad, 0xbd, 0x1b, 0xb7, 0x22, 0x3d,
    0x1b, 0xaa, 0x0a, 0xbc, 0x77, 0xb1, 0x88, 0xbd, 0x27, 0x8f,
    0x7a, 0xbc, 0x1b, 0x29, 0xd9, 0xbd, 0xdf, 0x96, 0x6d, 0x3d,
    0xa3, 0xed, 0xe5, 0x3c, 0xb9, 0x6a, 0x63, 0x3e, 0x18, 0x9b,
    0x30, 0xbe, 0xf3, 0x90, 0x0c, 0x3e, 0x9d, 0x28, 0x6d, 0xbd,
    0xb4, 0x88, 0x50, 0xbc, 0xe2, 0x0b, 0xd2, 0xbc, 0xec, 0x8f,
    0xba, 0xbc, 0xc4, 0x19, 0x1c, 0x3c, 0x3a, 0xe5, 0xcd, 0xbc,
    0x11, 0x30, 0x02, 0xbe, 0x61, 0xc8, 0x48, 0xbd, 0xda, 0x65,
    0x51, 0xbc, 0xe1, 0x9b, 0xf0, 0xbc, 0x4a, 0x33, 0xac, 0xbc,
    0xb0, 0xc3, 0xce, 0x3d, 0xc3, 0xcd, 0x21, 0xbd, 0x94, 0x36,
    0x44, 0xbe, 0x1a, 0x5c, 0x15, 0xbe, 0x18, 0xd9, 0x93, 0x3a,
    0x0c, 0xbd, 0x69, 0xbd, 0x08, 0xdc, 0x4b, 0xbe, 0xbd, 0x35,
    0x51, 0x3d, 0xc8, 0x65, 0xa8, 0x3d, 0x0b, 0xf3, 0x19, 0x3e,
    0x52, 0xdc, 0x14, 0x3e, 0x59, 0x69, 0xc8, 0xbc, 0xc6, 0xe3,
    0xec, 0x3d, 0x5d, 0x50, 0xbd, 0xbd, 0x88, 0x3c, 0xc0, 0x3d,
    0x46, 0xc1, 0x5c, 0xbd, 0x8c, 0x41, 0xb7, 0x3d, 0x51, 0xda,
    0xd2, 0x3d, 0x54, 0x8c, 0x3d, 0xbd, 0x1d, 0x32, 0xdb, 0xbb,
    0x55, 0x80, 0x61, 0xbd, 0x75, 0x1d, 0xd2, 0xbd, 0x33, 0xd3,
    0xa3, 0x3d, 0xd7, 0x7e, 0x92, 0x3d, 0x69, 0xb2, 0xad, 0x3d,
    0xea, 0xfe, 0x52, 0xbd, 0x9e, 0x12, 0xa5, 0xbc, 0x58, 0x57,
    0xa9, 0x3c, 0x47, 0x45, 0xd3, 0x3d, 0xec, 0x67, 0x5c, 0xbd,
    0x03, 0x3b, 0xd1, 0xbd, 0xfa, 0x1d, 0x94, 0xbb, 0x47, 0xe2,
    0xb1, 0x3c, 0x76, 0x66, 0xe7, 0xbc, 0x2a, 0x64, 0xb6, 0x3d,
    0xcf, 0x37, 0x91, 0xbd, 0x48, 0xd2, 0x0a, 0x3e, 0x94, 0xdc,
    0xdc, 0xbd, 0x33, 0x1b, 0xb2, 0x3d, 0x0e, 0x5f, 0x47, 0xbd,
    0x44, 0xde, 0x87, 0xbd, 0xe1, 0x89, 0xef, 0xbd, 0x4d, 0x9b,
    0xa9, 0xbd, 0x98, 0x34, 0x14, 0x3d, 0x83, 0xdc, 0x51, 0xbd,
    0xbd, 0x9c, 0x62, 0xbd, 0x24, 0x2d, 0x37, 0xbc, 0x26, 0x3a,
    0xc3, 0xbb, 0x06, 0xae, 0xd0, 0x3d, 0x82, 0xee, 0xc8, 0x3c,
    0xa3, 0x3f, 0x06, 0xbe, 0x0d, 0x16, 0x19, 0xbd, 0xe0, 0x03,
    0x01, 0x3e, 0xbf, 0xb6, 0x84, 0xbc, 0x56, 0xdb, 0x26, 0xbe,
    0x6c, 0x0f, 0x7c, 0xbd, 0x42, 0x55, 0x81, 0xbd, 0xc6, 0x42,
    0x05, 0xbd, 0x6b, 0xda, 0x1a, 0x3e, 0x8e, 0xad, 0xa6, 0x3c,
    0x32, 0x0c, 0x35, 0xbd, 0xa7, 0xc4, 0x5b, 0xbd, 0x75, 0xd7,
    0xd1, 0x3d, 0xd0, 0x13, 0xca, 0x3d, 0x63, 0x73, 0xa0, 0x3d,
    0xab, 0x1c, 0x35, 0x3d, 0x87, 0xc2, 0xc9, 0x3d, 0x5b, 0x5f,
    0xcb, 0xbc, 0xfa, 0x35, 0xeb, 0x3c, 0x12, 0x3d, 0xc6, 0xbc,
    0x5d, 0x47, 0x19, 0x3e, 0x01, 0xe6, 0xf6, 0xbd, 0xa8, 0x27,
    0x24, 0xbe, 0x60, 0xfa, 0xe0, 0x3d, 0xfc, 0x3f, 0xf6, 0xbd,
    0x08, 0x3f, 0x05, 0xbe, 0x83, 0x15, 0x13, 0x3d, 0x71, 0x4f,
    0xc6, 0xbc, 0x58, 0x31, 0xb1, 0xbd, 0x07, 0x87, 0x62, 0xbd,
    0xb0, 0xca, 0xc1, 0x3d, 0x9f, 0x33, 0x1a, 0xbe, 0xc2, 0x67,
    0xdf, 0xbd, 0x52, 0x2d, 0x5d, 0xbd, 0x04, 0x6e, 0x20, 0x3e,
    0x2f, 0x37, 0x74, 0x3d, 0x0d, 0x0a, 0x78, 0x3d, 0x7b, 0x3c,
    0xa2, 0xbd, 0xe0, 0x9f, 0x62, 0x3e, 0xbf, 0xb0, 0x20, 0xbd,
    0x32, 0xec, 0x09, 0x3e, 0x96, 0xff, 0xbd, 0xbd, 0x5e, 0x5b,
    0x1d, 0xbe, 0x97, 0x3f, 0xb7, 0xbd, 0x5d, 0x85, 0x60, 0xbd,
    0xb0, 0xc1, 0x05, 0xbc, 0x01, 0xfc, 0xbf, 0x3d, 0x99, 0xe9,
    0x09, 0x3d, 0xc0, 0xf8, 0x09, 0xbc, 0x20, 0x1b, 0xfc, 0x3d,
    0x62, 0x6d, 0xe0, 0xbd, 0xbd, 0xe6, 0xd9, 0xbd, 0x72, 0x20,
    0xe6, 0x3c, 0x97, 0x8e, 0x6e, 0xbe, 0xfb, 0x78, 0x0a, 0x3e,
    0xa0, 0x3f, 0xae, 0x3d, 0x79, 0xa5, 0x4c, 0x3d, 0xb5, 0x3d,
    0x3f, 0xbe, 0xd0, 0xdf, 0x75, 0x3e, 0x56, 0xe5, 0x91, 0xbe,
    0x25, 0x7b, 0x71, 0xbd, 0x34, 0xfa, 0x8c, 0xbd, 0x2b, 0xf7,
    0xf9, 0x3d, 0x93, 0xb8, 0x73, 0x3d, 0xa0, 0xad, 0x7e, 0x3e,
    0x01, 0xcf, 0xae, 0x3d, 0x82, 0x20, 0xd3, 0xbd, 0x2f, 0x12,
    0x3b, 0x3d, 0x7d, 0x9d, 0x04, 0x3e, 0x34, 0x3d, 0x81, 0xbd,
    0x39, 0x2a, 0xb5, 0x3d, 0xad, 0x65, 0x09, 0xbe, 0x30, 0x30,
    0xd9, 0xbd, 0x7c, 0x1b, 0x12, 0x3e, 0x7f, 0x53, 0x87, 0x3d,
    0xed, 0xaf, 0x08, 0x3d, 0x1a, 0x14, 0x1e, 0x3e, 0xd3, 0x98,
    0x19, 0xbe, 0x23, 0x05, 0x81, 0x3d, 0x40, 0x07, 0xcf, 0x3a,
    0x90, 0x9c, 0x9b, 0x3c, 0x7c, 0x64, 0x07, 0x3e, 0x9f, 0x4a,
    0xb7, 0x3d, 0x96, 0x80, 0x58, 0xbd, 0xc2, 0xc4, 0xbd, 0xbd,
    0x44, 0x72, 0x8d, 0xbe, 0x4b, 0xc3, 0x46, 0xbe, 0x0c, 0x2b,
    0x08, 0xbe, 0xa2, 0xc6, 0xaf, 0xbc, 0x1c, 0x48, 0x82, 0x3d,
    0xfb, 0xa5, 0xcf, 0x3c, 0xd7, 0x7d, 0x29, 0xbe, 0xe4, 0x47,
    0x93, 0xbc, 0x44, 0x88, 0x93, 0xbd, 0xd3, 0x0f, 0xb4, 0x3d,
    0xc0, 0x8d, 0x3e, 0xbe, 0x8e, 0x62, 0x4e, 0x3e, 0x8a, 0xe0,
    0x34, 0x3d, 0x7e, 0x54, 0xd1, 0xbb, 0xd7, 0x77, 0x14, 0xbe,
    0xc4, 0x43, 0x67, 0x3d, 0x33, 0xef, 0xf9, 0xbd, 0x1c, 0x03,
    0x3b, 0xbd, 0x15, 0xbb, 0x9d, 0x3b, 0x0d, 0xd3, 0xda, 0x3b,
    0xe0, 0xc2, 0x0c, 0x3e, 0x60, 0x2d, 0x1f, 0xbd, 0xa3, 0x76,
    0x5f, 0xbd, 0x77, 0xe6, 0x60, 0x3d, 0x5e, 0xc5, 0x00, 0x3a,
    0xfb, 0xcf, 0x04, 0x3c, 0xd6, 0x3d, 0x43, 0xbe, 0x68, 0xee,
    0x2d, 0xbd, 0xb1, 0xa2, 0xec, 0xbd, 0x09, 0xad, 0x8b, 0x3d,
    0x01, 0x50, 0x39, 0xbe, 0xa4, 0xb1, 0x2e, 0xbd, 0x93, 0x44,
    0xa2, 0x3d, 0x29, 0x4c, 0x7c, 0x3d, 0xae, 0x0f, 0x4c, 0xbe,
    0x85, 0x71, 0x0e, 0x3e, 0x6c, 0x8b, 0xb6, 0x3d, 0x37, 0x1b,
    0x18, 0x3c, 0x0b, 0x00, 0xfb, 0xbd, 0x39, 0xec, 0x85, 0x3b,
    0xf2, 0x4f, 0x26, 0xbe, 0x6d, 0x91, 0xf0, 0x3d, 0x55, 0x1d,
    0x2d, 0xbd, 0xfc, 0x5d, 0x2f, 0xbe, 0xa6, 0xcc, 0x86, 0xbd,
    0x20, 0xf6, 0x2b, 0x3e, 0xd1, 0x0c, 0x23, 0xbc, 0x7b, 0x3e,
    0xc5, 0x3b, 0xb2, 0xcf, 0xab, 0x3c, 0x51, 0xc3, 0x97, 0xbd,
    0x18, 0x25, 0x34, 0xbe, 0x7f, 0x68, 0xc4, 0x3c, 0x29, 0x2c,
    0x17, 0xbd, 0xa2, 0x62, 0xd3, 0xbd, 0x3b, 0x21, 0xb7, 0xbd,
    0x1b, 0xed, 0x0b, 0xbd, 0x54, 0xf2, 0x0f, 0xbe, 0xf2, 0xcd,
    0x27, 0x3e, 0x71, 0x36, 0x22, 0xbe, 0x4a, 0x85, 0xda, 0x3d,
    0xa8, 0x25, 0x9e, 0xbc, 0x9c, 0xad, 0xb8, 0xbc, 0x7d, 0xb3,
    0xd9, 0x3c, 0x17, 0xfc, 0x34, 0x3d, 0x58, 0xcf, 0xfa, 0xbd,
    0xa5, 0x75, 0xa3, 0x3d, 0x9f, 0x32, 0x96, 0x3d, 0x53, 0x73,
    0xd4, 0xbd, 0x87, 0x3f, 0x56, 0x3c, 0x88, 0xa1, 0x12, 0x3e,
    0xf6, 0x7d, 0x05, 0x3d, 0x78, 0x8e, 0xb0, 0xbd, 0xa5, 0xcb,
    0x5f, 0xbc, 0xae, 0x66, 0x10, 0x3e, 0x3f, 0xa4, 0x46, 0xbd,
    0xcf, 0xe9, 0xd6, 0xbc, 0x5b, 0xeb, 0x27, 0xbd, 0x45, 0x03,
    0x41, 0xbc, 0x98, 0x76, 0xa5, 0x3b, 0x30, 0xad, 0xaa, 0xbd,
    0x59, 0xe0, 0xc2, 0xbd, 0xf9, 0x71, 0x4c, 0x3d, 0x44, 0xdb,
    0x2e, 0x3d, 0xd5, 0xca, 0x2e, 0xbe, 0xaa, 0xe8, 0x29, 0xbe,
    0x59, 0x81, 0x3c, 0x3d, 0x40, 0x4b, 0xfe, 0x3b, 0x6a, 0xfc,
    0x15, 0xbe, 0x4b, 0xae, 0x11, 0xbe, 0x3d, 0x4d, 0xeb, 0x3c,
    0xf3, 0xb9, 0x92, 0xbd, 0x76, 0xd0, 0x92, 0x3d, 0x1c, 0x47,
    0x55, 0x3d, 0xcf, 0x69, 0x6d, 0xbc, 0xe0, 0x61, 0x81, 0xbd,
    0x2a, 0xf7, 0x9a, 0x3c, 0x5b, 0x5a, 0x2a, 0x3d, 0xe2, 0x74,
    0x27, 0x3d, 0x8e, 0x90, 0x72, 0x3d, 0x35, 0xa5, 0xab, 0xbc,
    0x48, 0x2c, 0xc8, 0xbd, 0x08, 0xc5, 0x84, 0x3d, 0x95, 0x4c,
    0x25, 0x3d, 0x3a, 0x1e, 0x96, 0x3c, 0xbf, 0x7f, 0x30, 0x3b,
    0x00, 0x70, 0x34, 0x3e, 0xc8, 0x3c, 0x65, 0x3e, 0x5b, 0x6d,
    0x92, 0xbd, 0xfd, 0x85, 0xbc, 0x3c, 0xde, 0xed, 0xae, 0x3c,
    0xeb, 0x98, 0x6b, 0x3d, 0x21, 0xf0, 0xdf, 0xbd, 0x29, 0x47,
    0x1d, 0xbe, 0xb8, 0x14, 0x64, 0x3d, 0x6c, 0xf6, 0x8e, 0xbd,
    0x49, 0xee, 0x93, 0x3d, 0xac, 0xca, 0xf3, 0x3c, 0x4f, 0x0d,
    0x2a, 0xbd, 0xe6, 0xfa, 0xa0, 0xbc, 0xfa, 0xc6, 0x3a, 0x3e,
    0x44, 0x61, 0x2e, 0x3d, 0x6b, 0x01, 0x01, 0x3e, 0x1e, 0xbe,
    0xb2, 0x3c, 0x41, 0xcb, 0x31, 0x3d, 0xb6, 0x91, 0x9b, 0xbd,
    0xea, 0x77, 0xc3, 0xbd, 0x57, 0x6f, 0x49, 0x3c, 0x97, 0x9f,
    0xf0, 0x3c, 0xca, 0xcf, 0xcb, 0xbd, 0xa9, 0x3c, 0xd1, 0x3d,
    0x31, 0x42, 0x95, 0x3d, 0xf6, 0xa2, 0x29, 0xbe, 0x7c, 0x2a,
    0xa2, 0xbd, 0x3c, 0x12, 0x3e, 0x3c, 0xeb, 0x53, 0x69, 0x3d,
    0x32, 0x1e, 0xb9, 0xbd, 0xb1, 0xff, 0xf9, 0xbd, 0x45, 0xb1,
    0xe3, 0x3c, 0xd9, 0x4c, 0xa3, 0x3d, 0x1e, 0xb6, 0x28, 0x3d,
    0x7d, 0xed, 0x07, 0x3d, 0xa2, 0x78, 0x09, 0x3e, 0x71, 0x1e,
    0xdd, 0xbd, 0x20, 0x9f, 0xd1, 0xbb, 0xce, 0x7b, 0x49, 0xbd,
    0x00, 0x7f, 0xee, 0xbd, 0xd7, 0xdc, 0x6a, 0xbd, 0xef, 0xa7,
    0xc4, 0xbc, 0x3e, 0x33, 0x89, 0xbd, 0x5e, 0xbb, 0xf2, 0xbd,
    0x8e, 0xec, 0x15, 0x3d, 0xa1, 0xa0, 0x2c, 0x3d, 0x88, 0xf6,
    0xf2, 0xbb, 0x32, 0xa9, 0x49, 0xbd, 0x0c, 0x9d, 0x83, 0x3e,
    0x10, 0x6b, 0x1a, 0xbe, 0x46, 0x67, 0x5c, 0x3d, 0x09, 0x7e,
    0x81, 0x3d, 0x74, 0x36, 0xf4, 0x3d, 0x33, 0x36, 0x86, 0x3d,
    0xf8, 0x40, 0xad, 0x3c, 0x55, 0xea, 0x4e, 0xbd, 0xd5, 0x5a,
    0x09, 0xbc, 0x50, 0xe6, 0x40, 0x3e, 0xa2, 0x53, 0x2d, 0x3d,
    0x77, 0x5d, 0x6c, 0x3b, 0xf2, 0xfe, 0xef, 0x3c, 0xa9, 0x7c,
    0x52, 0x3d, 0xbe, 0x67, 0x0c, 0x3e, 0x11, 0x48, 0x0b, 0xbe,
    0x55, 0x3f, 0x50, 0x3c, 0x2f, 0xd8, 0x30, 0x3d, 0x45, 0x53,
    0xb5, 0xbc, 0x2c, 0x60, 0xe5, 0xbd, 0x03, 0x6d, 0x94, 0x3d,
    0xa6, 0x0d, 0x7b, 0xbd, 0x7f, 0xcc, 0x88, 0xbd, 0x1e, 0x23,
    0xd2, 0xbd, 0xc7, 0x0e, 0xc1, 0x3d, 0xe0, 0xb0, 0x83, 0xbe,
    0x94, 0xe9, 0x2c, 0xbe, 0xd3, 0xa8, 0xcc, 0xbb, 0x7f, 0x7c,
    0x2b, 0x3e, 0x1b, 0x3f, 0x6f, 0x3d, 0xd4, 0xc7, 0x17, 0x3c,
    0x7d, 0xc4, 0xad, 0x3d, 0xd3, 0x94, 0x7f, 0xbd, 0x6a, 0xaa,
    0xd1, 0xbc, 0xfe, 0x13, 0x2c, 0x3b, 0xc6, 0x79, 0x32, 0xbe,
    0x10, 0x4d, 0x2c, 0xbd, 0xe6, 0x22, 0x6f, 0xbd, 0xe0, 0x64,
    0x5c, 0x3d, 0x0b, 0xd2, 0xfe, 0x3d, 0x15, 0xab, 0x15, 0xbe,
    0x79, 0x4b, 0x3a, 0x3d, 0xf2, 0x1e, 0x8b, 0xbd, 0x6f, 0x74,
    0xb6, 0x3d, 0xea, 0xcc, 0x78, 0xbd, 0x2d, 0xbe, 0x98, 0x3d,
    0x2a, 0x2b, 0x91, 0xbd, 0x3a, 0x4b, 0x87, 0xbd, 0x20, 0x5a,
    0x68, 0x3e, 0xe3, 0x2f, 0x7f, 0xbe, 0x55, 0x45, 0x62, 0x3d,
    0xb0, 0xb6, 0x63, 0xbd, 0x1a, 0x03, 0xc1, 0x3d, 0x7b, 0x40,
    0x11, 0x3d, 0x9f, 0x00, 0xbe, 0xbc, 0x43, 0x79, 0xd9, 0xbd,
    0x97, 0x95, 0xbf, 0x3d, 0xb8, 0x43, 0xdf, 0x3c, 0xcc, 0x78,
    0xb4, 0x3d, 0x36, 0xdd, 0x2a, 0xbe, 0x2e, 0x37, 0x47, 0x3d,
    0xed, 0xcb, 0x76, 0x3d, 0x77, 0x66, 0x19, 0x3e, 0xff, 0xe8,
    0x0d, 0x3f, 0x9d, 0x91, 0xe6, 0x3e, 0x6c, 0xc5, 0x93, 0x3e,
    0x6f, 0x9e, 0xc1, 0x3e, 0xd9, 0x25, 0x96, 0x3e, 0x50, 0xc6,
    0xfe, 0x3e, 0x8b, 0xf4, 0xd3, 0x3e, 0x3d, 0x39, 0x84, 0x3d,
    0xc7, 0xec, 0x90, 0xbd, 0xc5, 0xa0, 0xec, 0xbd, 0x33, 0x32,
    0x8b, 0x3d, 0xeb, 0xfc, 0x65, 0xbe, 0x21, 0xad, 0x5e, 0x3e,
    0x51, 0xdf, 0x06, 0xbe, 0xaa, 0x97, 0x53, 0xbe, 0x96, 0xcd,
    0xd9, 0xbd, 0xcc, 0xd6, 0x19, 0x3e, 0xc5, 0xec, 0x2b, 0xbe,
    0xba, 0x5c, 0x55, 0x3e, 0xc6, 0x96, 0x22, 0xbe, 0xf7, 0xa1,
    0x2d, 0x3e, 0x28, 0x4b, 0x96, 0x3d, 0xb6, 0x64, 0xb9, 0x3d,
    0x10, 0x50, 0x06, 0xbe, 0x39, 0x68, 0x81, 0x3d, 0x4e, 0xad,
    0xd4, 0xbd, 0xd8, 0xaa, 0x38, 0x3d, 0x01, 0x40, 0x5f, 0xbe,
    0x69, 0x9e, 0x0a, 0xbe, 0xf0, 0x97, 0xd0, 0xbc, 0x71, 0xce,
    0xa1, 0x3d, 0x1d, 0x53, 0xff, 0x3d, 0x66, 0x5b, 0x89, 0xbd,
    0xff, 0xac, 0xd3, 0x3d, 0x7e, 0x1f, 0x30, 0x3b, 0xb8, 0x03,
    0x31, 0x3e, 0xc3, 0xe3, 0xd4, 0xbd, 0x1b, 0x0e, 0x88, 0xbd,
    0x18, 0x87, 0x9c, 0x3d, 0x29, 0x31, 0x5a, 0xbe, 0xa4, 0x40,
    0x0f, 0xbe, 0x62, 0xf1, 0x35, 0xbe, 0xeb, 0xa5, 0x46, 0x3e,
    0x5e, 0x1f, 0xe1, 0xbc, 0x22, 0x69, 0x59, 0xbe, 0x84, 0x67,
    0xc1, 0x3d, 0xa5, 0x19, 0x1b, 0xbe, 0xc3, 0x14, 0x12, 0xbe,
    0xa5, 0x66, 0xa8, 0x3d, 0x2e, 0x15, 0x12, 0xbd, 0x9b, 0x70,
    0x0e, 0x3e, 0x97, 0xdb, 0x21, 0xbe, 0xd2, 0x0d, 0x67, 0xbe,
    0x4e, 0x1e, 0x52, 0xbe, 0x19, 0x3f, 0x56, 0xbe, 0x36, 0x21,
    0xef, 0x3c, 0x0d, 0xb1, 0x0f, 0xbe, 0xc7, 0x41, 0xdd, 0xbc,
    0x1e, 0x01, 0x1b, 0xbe, 0x21, 0x19, 0xef, 0xbb, 0x75, 0xf1,
    0xef, 0x3d, 0x81, 0xc7, 0xff, 0xbc, 0x8b, 0x8a, 0x52, 0xbe,
    0x22, 0xdb, 0x76, 0x3d, 0x6c, 0x2e, 0x91, 0xbd, 0x89, 0xc3,
    0x42, 0xbe, 0x61, 0x4f, 0xd8, 0x3d, 0xe7, 0xbf, 0x8d, 0xbd,
    0xb9, 0x6e, 0x63, 0x3c, 0xb7, 0x3e, 0xc6, 0xbd, 0x4f, 0x22,
    0xe7, 0x3b, 0xe8, 0x08, 0x9a, 0x3d, 0x69, 0x3f, 0xa8, 0x3a,
    0x4a, 0xed, 0x54, 0xbe, 0xa2, 0xc5, 0x34, 0x3e, 0x3c, 0x37,
    0x60, 0xbe, 0x9c, 0xab, 0xff, 0x3c, 0xcb, 0x6a, 0x30, 0xbe,
    0xe9, 0x0a, 0x8f, 0x3d, 0x13, 0x77, 0xad, 0xbd, 0xce, 0x37,
    0xc8, 0x3d, 0x7e, 0x59, 0x7c, 0xbd, 0xa9, 0xed, 0xa6, 0x3d,
    0xa6, 0x19, 0x6e, 0x3c, 0xad, 0xef, 0x26, 0x3d, 0x41, 0x2e,
    0x37, 0xbe, 0x0b, 0x38, 0x77, 0xbe, 0x2b, 0x45, 0x18, 0xbc,
    0xb4, 0xc4, 0x26, 0xbe, 0xe7, 0xaf, 0x7e, 0xbe, 0x73, 0xbb,
    0xd1, 0xbd, 0xe4, 0x57, 0x38, 0xbe, 0x3b, 0x73, 0xde, 0xbd,
    0x14, 0x3a, 0xb6, 0xbd, 0x28, 0x9f, 0xb1, 0xbe, 0x3f, 0xc2,
    0xb5, 0x3d, 0x51, 0xd3, 0xd3, 0xbd, 0x7c, 0xb2, 0xb2, 0xbd,
    0xfa, 0x42, 0x32, 0x3e, 0x3f, 0xee, 0xa2, 0x3d, 0x68, 0x9e,
    0xcf, 0xba, 0x25, 0xaf, 0x1b, 0xbe, 0xb8, 0x54, 0xc5, 0xbd,
    0xb9, 0x9d, 0x14, 0x3d, 0xc0, 0xd2, 0xdd, 0xbd, 0x18, 0x19,
    0x14, 0xba, 0x5d, 0x90, 0x9c, 0xbd, 0x0b, 0x9c, 0x3c, 0xbe,
    0x64, 0x56, 0x1d, 0xbd, 0xb8, 0x33, 0xef, 0x3c, 0x14, 0x40,
    0xa9, 0xbe, 0xfb, 0xf7, 0x3c, 0x3e, 0x65, 0xcd, 0x05, 0x3e,
    0x43, 0xf7, 0x6d, 0xbe, 0x46, 0x90, 0x57, 0xbe, 0xa5, 0xdf,
    0x85, 0x3d, 0xe6, 0x55, 0xd2, 0xbd, 0x1c, 0xf8, 0x91, 0xbd,
    0xbb, 0xb8, 0x07, 0xbe, 0x84, 0x69, 0x43, 0x3e, 0xa7, 0x48,
    0x86, 0xbe, 0x36, 0xe7, 0x32, 0xbe, 0xc5, 0x2d, 0xc7, 0x3d,
    0x73, 0xb9, 0x73, 0xbd, 0x49, 0xf7, 0x00, 0xbe, 0x98, 0x9c,
    0x9b, 0xbc, 0x7c, 0x9d, 0x21, 0xbe, 0x53, 0x22, 0x8a, 0x3c,
    0x4f, 0xb4, 0x04, 0x3e, 0xd3, 0x8e, 0x84, 0xbe, 0x44, 0x94,
    0x68, 0xbd, 0x23, 0x78, 0x91, 0xbe, 0x9f, 0xd5, 0x77, 0x3d,
    0xc3, 0xc1, 0xa7, 0xbe, 0xb9, 0x2a, 0x7c, 0xbe, 0x23, 0x49,
    0x5c, 0xbe, 0x45, 0x08, 0xff, 0xbd, 0x09, 0x09, 0x0c, 0x3e,
    0xc6, 0x10, 0x95, 0x3a, 0xe2, 0xbb, 0xc5, 0xbd, 0x81, 0x5c,
    0x27, 0xbb, 0xed, 0x74, 0x29, 0x3d, 0xd6, 0x4e, 0x99, 0xbc,
    0x2a, 0xad, 0x60, 0xbe, 0xae, 0x19, 0x7e, 0xbd, 0x63, 0x00,
    0xec, 0x3c, 0x6d, 0x66, 0x92, 0xbc, 0xa1, 0x27, 0x4e, 0xbe,
    0xc8, 0x45, 0xdc, 0x3c, 0x75, 0xc9, 0x90, 0xbe, 0x91, 0x2e,
    0x0a, 0xbd, 0xdf, 0x3b, 0x8a, 0xbe, 0x5e, 0x7d, 0xe4, 0x3d,
    0x43, 0xcf, 0x0a, 0xbd, 0x3d, 0x6e, 0xec, 0xbd, 0xce, 0xc2,
    0x80, 0xbc, 0xff, 0xc5, 0x36, 0xbe, 0x40, 0x98, 0x07, 0xbd,
    0xb8, 0xb9, 0xd8, 0xbd, 0x79, 0x51, 0xc5, 0xbd, 0x09, 0x51,
    0x22, 0xbe, 0x87, 0x4f, 0x27, 0xbd, 0x6c, 0x5e, 0x88, 0x3d,
    0x27, 0x37, 0xf6, 0x3d, 0xf7, 0xf7, 0x95, 0xbd, 0xa9, 0xce,
    0x89, 0xbe, 0xec, 0xe6, 0x86, 0xbd, 0xc2, 0x15, 0x26, 0x3d,
    0xb2, 0x99, 0x66, 0xbe, 0x76, 0x70, 0xfd, 0x3c, 0xbd, 0x13,
    0x90, 0xbd, 0x01, 0x93, 0xe9, 0xbd, 0x75, 0x90, 0xf3, 0x3d,
    0xe0, 0x19, 0xea, 0x3d, 0x6e, 0x35, 0x60, 0xbd, 0x87, 0x8b,
    0xc0, 0xbe, 0x16, 0x09, 0x14, 0xbd, 0x8c, 0x30, 0x24, 0x3b,
    0x0a, 0x1f, 0x88, 0x3d, 0xdf, 0xf3, 0x53, 0xbe, 0x00, 0xdd,
    0x8f, 0xbe, 0xa6, 0x4c, 0x57, 0xbc, 0x05, 0xcc, 0xec, 0x3d,
    0x01, 0x0a, 0x08, 0xbe, 0x37, 0x95, 0x05, 0xbd, 0x8f, 0x90,
    0x72, 0x3d, 0xf5, 0x53, 0xe6, 0x3c, 0xd0, 0x92, 0xa5, 0x3d,
    0x7e, 0x87, 0x68, 0xbd, 0x44, 0x5c, 0x8e, 0xbe, 0x53, 0x29,
    0x62, 0xbe, 0xb5, 0x43, 0x87, 0xbe, 0x3c, 0x9a, 0x78, 0xbe,
    0x0f, 0x75, 0xd2, 0x3d, 0x45, 0x0b, 0x23, 0xbd, 0x12, 0xdf,
    0xc6, 0xbd, 0xd6, 0xd3, 0x9c, 0x3c, 0x5a, 0x8d, 0x8d, 0x3d,
    0x7c, 0x39, 0xfc, 0xbd, 0x83, 0xb3, 0x3d, 0xbd, 0x43, 0x2c,
    0x64, 0xbd, 0x51, 0xf7, 0x20, 0xbe, 0xb4, 0xc1, 0x0d, 0x3e,
    0x0d, 0x45, 0x29, 0xbe, 0x2a, 0x17, 0x35, 0xbe, 0xa1, 0x36,
    0x8c, 0xbe, 0xe8, 0x2f, 0xea, 0xbc, 0x91, 0x8a, 0xa0, 0xbd,
    0x48, 0x23, 0x2f, 0x3d, 0x81, 0xa2, 0xda, 0xbd, 0x73, 0x8f,
    0x54, 0x3e, 0x40, 0x07, 0xd4, 0xbd, 0x24, 0xe4, 0x3a, 0xbe,
    0xff, 0x8d, 0x65, 0xbe, 0x17, 0x80, 0x24, 0x3e, 0xb7, 0x09,
    0x28, 0x3e, 0xed, 0x1e, 0xbe, 0xbd, 0x0b, 0x44, 0x6d, 0x3d,
    0xc2, 0xfb, 0x0f, 0x3e, 0x8e, 0x19, 0xff, 0x3d, 0x10, 0x58,
    0xf7, 0x3d, 0x36, 0x75, 0x31, 0xbe, 0x56, 0xe5, 0x09, 0x3d,
    0xc5, 0xbc, 0x28, 0xbd, 0x75, 0xc1, 0xe1, 0xbd, 0xc7, 0x93,
    0xaa, 0x3d, 0x26, 0xfc, 0x2d, 0xbe, 0x5a, 0x7b, 0xc5, 0xbc,
    0x1c, 0xf5, 0x45, 0x3d, 0xfa, 0x45, 0x30, 0xbe, 0x92, 0x25,
    0xe7, 0x3a, 0xd6, 0xe7, 0xf6, 0xbd, 0x49, 0xc4, 0x8b, 0xbc,
    0x09, 0xc5, 0xc5, 0xbd, 0xaa, 0xa9, 0x78, 0x3e, 0x4b, 0x7a,
    0x19, 0xbe, 0x22, 0xbb, 0xfb, 0x3d, 0xc6, 0x33, 0x35, 0xbe,
    0x1b, 0x0c, 0xf5, 0x3c, 0xb5, 0x24, 0x58, 0xbb, 0xab, 0xdd,
    0xbd, 0xbd, 0x33, 0xf6, 0x25, 0x3e, 0xad, 0x29, 0x72, 0xbd,
    0x34, 0x5a, 0x4b, 0x3d, 0xa2, 0xd7, 0xc0, 0xbd, 0xdd, 0x17,
    0x6f, 0xbe, 0x13, 0x7d, 0x62, 0x3d, 0xb0, 0x5d, 0x24, 0x3e,
    0x95, 0xcb, 0x65, 0xbe, 0xce, 0x61, 0x7b, 0xbc, 0x3e, 0xd7,
    0x8f, 0xbd, 0x8b, 0x82, 0x50, 0xbe, 0x5f, 0x46, 0xda, 0xbd,
    0x9f, 0x26, 0x94, 0xbe, 0x98, 0x28, 0x05, 0x3e, 0x32, 0x96,
    0xe4, 0x3d, 0x56, 0x24, 0x88, 0xbc, 0x15, 0x7d, 0x2e, 0x3e,
    0xa2, 0x14, 0xca, 0xbd, 0x1e, 0x73, 0x1f, 0x3d, 0x94, 0xba,
    0x06, 0x39, 0x07, 0x78, 0x86, 0x3d, 0x46, 0xec, 0xc5, 0x3b,
    0xbf, 0xd0, 0x87, 0xbd, 0x54, 0x42, 0xc8, 0xbc, 0x3a, 0xa7,
    0xb3, 0xbd, 0xad, 0x78, 0xb0, 0x3d, 0x44, 0xd9, 0x0c, 0xbd,
    0x0b, 0xa9, 0xf3, 0x3d, 0x3f, 0xa8, 0xff, 0xbd, 0xa6, 0x62,
    0x53, 0xbe, 0x16, 0xb3, 0xeb, 0xbd, 0x43, 0x1f, 0xbd, 0x3d,
    0xa5, 0xc5, 0xa6, 0xbc, 0x63, 0x27, 0x24, 0xbd, 0xb6, 0xe6,
    0x6a, 0x3a, 0x9c, 0x1f, 0x87, 0x3d, 0x78, 0xf7, 0x0a, 0xbd,
    0x6a, 0x8e, 0x10, 0x3d, 0x8a, 0xc1, 0x17, 0x3e, 0xb7, 0xe3,
    0xcc, 0xbd, 0x05, 0xbc, 0x9c, 0x3a, 0xb0, 0x09, 0x8a, 0x3d,
    0x09, 0x06, 0x25, 0x3d, 0x39, 0x11, 0x3e, 0xbe, 0xcd, 0xd2,
    0xce, 0xbd, 0x3a, 0x0a, 0x33, 0x3d, 0x9f, 0x97, 0x1f, 0x3e,
    0x63, 0x41, 0x2b, 0xbe, 0x52, 0x70, 0x34, 0xbe, 0xf4, 0x3d,
    0x03, 0x3e, 0x88, 0x21, 0x12, 0x3e, 0x7a, 0xd2, 0xfb, 0x3d,
    0x86, 0x53, 0x8d, 0xbe, 0xeb, 0x8b, 0x60, 0xbe, 0x68, 0xb1,
    0x13, 0xbe, 0x6d, 0x2a, 0x32, 0xbc, 0x30, 0x3f, 0x34, 0xbe,
    0xe9, 0x31, 0x8c, 0x3d, 0x45, 0x3b, 0x9c, 0xbd, 0x67, 0x67,
    0x49, 0xbe, 0xaa, 0x36, 0xe6, 0xbd, 0xb8, 0x01, 0x71, 0xbc,
    0x6e, 0xc9, 0xa8, 0xbd, 0xfe, 0xc6, 0x9a, 0xbe, 0x76, 0x44,
    0x40, 0x3e, 0x7b, 0x79, 0x14, 0x3e, 0x24, 0x83, 0x1e, 0xbc,
    0xd9, 0x99, 0x20, 0x3e, 0xcd, 0x62, 0x2d, 0xbe, 0x00, 0xa5,
    0x7c, 0x3d, 0x0d, 0x91, 0x71, 0x3d, 0x24, 0xf8, 0x16, 0xbe,
    0xdb, 0xe7, 0x16, 0xbd, 0xa2, 0x2c, 0x55, 0xbd, 0xa5, 0x83,
    0x2a, 0xbe, 0xe8, 0x71, 0x7f, 0xbe, 0x5b, 0x45, 0x4a, 0xbe,
    0x59, 0x6f, 0x94, 0x3d, 0x78, 0xd5, 0x0d, 0xbe, 0xdc, 0x47,
    0xcd, 0xbd, 0x31, 0x77, 0x29, 0x3e, 0x1c, 0x08, 0xf1, 0x3c,
    0xdf, 0x45, 0xba, 0x3d, 0x41, 0xb5, 0x85, 0xbe, 0x4e, 0xa9,
    0x62, 0xbd, 0xf1, 0x46, 0x1d, 0x3e, 0x83, 0x06, 0x9e, 0x3b,
    0x75, 0x65, 0x71, 0xbe, 0xff, 0x01, 0xed, 0x3d, 0x2a, 0x8b,
    0x94, 0xbe, 0x8e, 0x92, 0xb1, 0xbc, 0x6c, 0x79, 0x31, 0xbd,
    0x7b, 0xbd, 0x8c, 0xbe, 0x4a, 0x99, 0x43, 0x3e, 0x29, 0xcf,
    0x30, 0x3e, 0xc3, 0x07, 0x89, 0x3d, 0x76, 0xf0, 0xd0, 0xbd,
    0xaf, 0x45, 0xbb, 0x3d, 0x1e, 0x9e, 0x2a, 0x3e, 0x09, 0x76,
    0x0a, 0x3d, 0x1a, 0x58, 0x98, 0x3d, 0xad, 0x67, 0x10, 0x3c,
    0x19, 0xa5, 0x31, 0x3e, 0x3f, 0x4e, 0x3d, 0xbe, 0x1f, 0xa9,
    0xe4, 0xbd, 0xb3, 0x05, 0xc6, 0xbd, 0x1d, 0xd4, 0x10, 0xbe,
    0x3e, 0x12, 0xf4, 0x3d, 0x05, 0x0a, 0xa0, 0xbe, 0x0c, 0xb2,
    0x54, 0xbd, 0x78, 0xaf, 0x0c, 0x3e, 0x4b, 0xdf, 0x20, 0x3d,
    0xdd, 0xa0, 0x4b, 0x3e, 0xdf, 0xdc, 0xa6, 0xbd, 0xe0, 0xbe,
    0xb3, 0xbc, 0x2d, 0x78, 0xa1, 0xbc, 0xce, 0x8e, 0xb6, 0xbd,
    0x00, 0xe4, 0x2e, 0xbd, 0x6f, 0x5c, 0xd7, 0xbc, 0xf5, 0x29,
    0x02, 0xbe, 0x1b, 0xf9, 0x16, 0x3e, 0x94, 0x88, 0x81, 0xbc,
    0xb0, 0x4c, 0x78, 0xbe, 0xbd, 0x49, 0x48, 0xbe, 0xc8, 0x3b,
    0x0c, 0xbe, 0x56, 0x43, 0x1f, 0x3e, 0xcc, 0x8f, 0x82, 0x3d,
    0xc9, 0xd5, 0xe7, 0xbd, 0xcc, 0xfa, 0xdd, 0x3d, 0x0e, 0x0f,
    0x70, 0xbe, 0xd2, 0x5c, 0xd0, 0x3d, 0xa8, 0xf0, 0xe3, 0x3d,
    0x11, 0x84, 0x3e, 0xbe, 0x98, 0xa3, 0xc3, 0x3d, 0x45, 0x6e,
    0x82, 0xbd, 0x5e, 0x6b, 0x10, 0xba, 0x4a, 0xd0, 0xe6, 0xbc,
    0xfa, 0x6d, 0xbc, 0xbd, 0xbc, 0x36, 0xac, 0xbd, 0x65, 0x24,
    0x85, 0xbe, 0x7e, 0x97, 0x9f, 0xbd, 0x4c, 0xb8, 0x27, 0x3e,
    0xed, 0x33, 0xdd, 0x3d, 0x4a, 0x0b, 0x42, 0xbc, 0xd5, 0x3e,
    0x2b, 0xbd, 0x95, 0xde, 0x6a, 0xbe, 0x19, 0x7f, 0xa6, 0x3d,
    0x44, 0x9d, 0xe5, 0x3d, 0x31, 0xdc, 0x2f, 0x3c, 0x93, 0x53,
    0xcb, 0xbc, 0x2c, 0x4b, 0x6a, 0x3e, 0xc5, 0x39, 0x57, 0xbe,
    0xca, 0x75, 0x52, 0xbe, 0xff, 0x4c, 0x97, 0x3d, 0xb6, 0x0a,
    0xde, 0xbd, 0xad, 0x6e, 0xf8, 0x3b, 0xd9, 0xc9, 0x27, 0x3e,
    0xf3, 0x44, 0x64, 0x3e, 0x6e, 0xca, 0x12, 0xbe, 0xb7, 0x12,
    0x48, 0x3e, 0x06, 0x8b, 0x6e, 0x3d, 0x34, 0x7f, 0x53, 0x3e,
    0xa3, 0x86, 0x15, 0x3d, 0xec, 0xc4, 0x62, 0xbe, 0x1c, 0x54,
    0x7b, 0xbe, 0xf6, 0xcc, 0x7f, 0xbd, 0x47, 0x67, 0x86, 0x3e,
    0x56, 0x44, 0x89, 0xbd, 0x48, 0xe6, 0x59, 0x3e, 0xfb, 0x75,
    0xf2, 0x3d, 0x37, 0x58, 0xdf, 0x3d, 0xf2, 0x3c, 0xc4, 0x3d,
    0x31, 0x28, 0x53, 0xbe, 0xa1, 0x42, 0xa0, 0xbd, 0x0f, 0x6e,
    0xb2, 0x3d, 0x99, 0x27, 0x55, 0x3e, 0xeb, 0xc3, 0x6f, 0xbe,
    0x01, 0xc9, 0xe9, 0xbd, 0x4a, 0xf5, 0xd7, 0x3c, 0xd7, 0x71,
    0x98, 0x3d, 0xdc, 0x2f, 0x9b, 0x3d, 0xda, 0x9c, 0x34, 0x3e,
    0xe5, 0x81, 0xff, 0xbd, 0xee, 0x9a, 0x9a, 0x3c, 0xa1, 0xbf,
    0xbc, 0xbd, 0xf6, 0xb7, 0x28, 0xbe, 0xe2, 0x57, 0xc7, 0xbd,
    0x60, 0x34, 0x5f, 0xbe, 0x48, 0xe4, 0xe5, 0x3c, 0xb9, 0x02,
    0xa0, 0x3d, 0xda, 0x91, 0x25, 0x3c, 0x6d, 0x96, 0x00, 0x3e,
    0x86, 0xd5, 0x17, 0xbe, 0x4a, 0xa3, 0xde, 0xbd, 0x84, 0xea,
    0x8f, 0x3d, 0xeb, 0xd9, 0x15, 0x3e, 0xbe, 0x79, 0xd3, 0x3c,
    0x58, 0x8b, 0xb8, 0x3c, 0x00, 0x3b, 0x3e, 0xbe, 0x4a, 0x5f,
    0xa3, 0x3d, 0xb4, 0x77, 0x36, 0xbe, 0x61, 0xaf, 0xae, 0xbd,
    0x62, 0xe9, 0x1e, 0xbd, 0x41, 0xc0, 0x0a, 0x3e, 0x44, 0x5e,
    0x9c, 0xbd, 0xb5, 0xab, 0x2f, 0x3e, 0x97, 0x7f, 0xde, 0xbd,
    0x4b, 0x09, 0x45, 0xbe, 0x9b, 0x76, 0xf7, 0xbd, 0x12, 0xcc,
    0xef, 0xbd, 0xf1, 0xbe, 0x27, 0xbe, 0xa4, 0x6c, 0x26, 0xbe,
    0xbd, 0x68, 0x09, 0x3e, 0xf2, 0x8c, 0x1a, 0x3e, 0x2f, 0x87,
    0x33, 0x3c, 0x86, 0xb5, 0x38, 0xbe, 0x3e, 0x32, 0x56, 0xbe,
    0x19, 0x7b, 0x68, 0xbd, 0x45, 0x75, 0xe9, 0x3d, 0x34, 0x6c,
    0x17, 0xbe, 0x79, 0x12, 0xc1, 0xbd, 0xd7, 0x8e, 0x4a, 0x3d,
    0x58, 0xc6, 0x20, 0x3e, 0x76, 0xc6, 0x4e, 0x3e, 0xf0, 0xe1,
    0xdc, 0x3d, 0xbb, 0x10, 0x51, 0x3d, 0x4b, 0x90, 0x08, 0x3d,
    0x69, 0x7e, 0x57, 0xbe, 0x5b, 0xde, 0x74, 0xbd, 0x05, 0xf4,
    0xd0, 0xbd, 0xe9, 0x32, 0xc5, 0x3c, 0x82, 0x6b, 0x5f, 0x3e,
    0x45, 0x0c, 0x67, 0x3e, 0x6a, 0xa8, 0x8b, 0x3e, 0xe6, 0x97,
    0x9f, 0x3d, 0x86, 0xf8, 0xc5, 0xbc, 0x86, 0x29, 0x59, 0xbd,
    0x02, 0x34, 0x38, 0x3d, 0x30, 0xbe, 0x90, 0xbd, 0xe8, 0xf3,
    0x1e, 0x3e, 0x92, 0x43, 0x86, 0x3d, 0xc2, 0x93, 0x18, 0x3e,
    0x20, 0xc9, 0x9b, 0xbc, 0x3f, 0x55, 0x27, 0xbe, 0xf1, 0x66,
    0xab, 0xbc, 0x14, 0xf0, 0x36, 0xbe, 0x76, 0x9a, 0xe8, 0x3c,
    0x10, 0x38, 0x45, 0xbe, 0xf2, 0x3d, 0x04, 0x3e, 0x58, 0x61,
    0xfd, 0x3c, 0x8c, 0x87, 0x43, 0xbd, 0x68, 0x5e, 0x0f, 0xbe,
    0x74, 0x95, 0x84, 0x3e, 0x2a, 0x69, 0x58, 0x3e, 0xde, 0xff,
    0xe7, 0x3d, 0x64, 0xc0, 0x65, 0x3c, 0x69, 0x27, 0x65, 0x3d,
    0x10, 0x6a, 0x1d, 0xbe, 0x3d, 0x17, 0x51, 0x3e, 0xb1, 0xc3,
    0xbc, 0x3d, 0xdf, 0xce, 0xa3, 0x3d, 0x52, 0x9c, 0xd8, 0x3d,
    0x45, 0x26, 0x2a, 0xbd, 0xfd, 0x49, 0x49, 0xbe, 0xc7, 0xfb,
    0x86, 0x3c, 0x3a, 0xc3, 0x0d, 0xbe, 0xcd, 0xa9, 0x2b, 0xbe,
    0x21, 0xbc, 0x69, 0x3e, 0x4a, 0x81, 0x80, 0x3d, 0x88, 0x56,
    0x22, 0xbe, 0x34, 0x81, 0x82, 0x3e, 0xac, 0xe5, 0xa8, 0x3d,
    0x16, 0x51, 0x06, 0x3e, 0xcd, 0xd7, 0x71, 0x3e, 0x82, 0x38,
    0x14, 0xbe, 0x9d, 0x28, 0x31, 0xbe, 0xda, 0x2b, 0x24, 0x3e,
    0x0b, 0x54, 0x81, 0x3e, 0x5b, 0x6f, 0xe4, 0x3c, 0x3a, 0x68,
    0x51, 0xbe, 0xa0, 0xdb, 0x31, 0xbe, 0xf0, 0x71, 0x16, 0x3b,
    0x8e, 0xad, 0x46, 0x3e, 0x0c, 0xfb, 0x80, 0x3e, 0x3d, 0x23,
    0xb2, 0xbd, 0xb0, 0xbe, 0x58, 0x3e, 0xd3, 0xa5, 0x30, 0xbe,
    0x18, 0x29, 0xa9, 0xbc, 0x18, 0x6f, 0xe7, 0x3d, 0xce, 0x3f,
    0xe3, 0x3d, 0x64, 0x59, 0x3c, 0xbe, 0xaa, 0x3b, 0xd4, 0xbd,
    0xef, 0x89, 0x96, 0x3d, 0x73, 0x96, 0x29, 0x3e, 0xa3, 0xf4,
    0x63, 0xbd, 0x80, 0x46, 0x25, 0x3e, 0x43, 0x02, 0xea, 0xbd,
    0xf7, 0x9c, 0x78, 0xbd, 0xf2, 0x83, 0x3f, 0x3d, 0x37, 0x94,
    0xf6, 0xbd, 0x8b, 0x6a, 0x13, 0xbd, 0x47, 0x02, 0x6a, 0x3e,
    0x84, 0xfc, 0x40, 0xbd, 0x4d, 0x02, 0xb0, 0x3d, 0x6c, 0xbb,
    0x10, 0xbe, 0x7c, 0x4d, 0xed, 0xbd, 0xa6, 0xbf, 0x0e, 0x3e,
    0x1b, 0xe8, 0x4a, 0x3e, 0x71, 0x7e, 0x1d, 0xbe, 0xde, 0x27,
    0x9f, 0x3d, 0x52, 0xc6, 0x00, 0xbe, 0xba, 0x3b, 0xff, 0x3c,
    0x51, 0x33, 0x48, 0x3d, 0x67, 0x22, 0x8c, 0x3e, 0xbd, 0x59,
    0x46, 0x3e, 0x0c, 0xda, 0x51, 0x3e, 0x60, 0x86, 0x09, 0x3e,
    0x23, 0xc4, 0x4d, 0x3e, 0xf2, 0x1f, 0x98, 0x3e, 0x8c, 0xd9,
    0x50, 0xbd, 0x60, 0xf4, 0x8b, 0x3e, 0xe7, 0xc5, 0x32, 0x3e,
    0x77, 0xe0, 0x6d, 0x3e, 0x9b, 0x85, 0x1d, 0xbe, 0x18, 0xb9,
    0x1b, 0xbc, 0x1a, 0xfe, 0x29, 0xbe, 0x94, 0xe5, 0x7f, 0x3e,
    0x20, 0x94, 0x20, 0xbe, 0xa0, 0x04, 0x8c, 0x3e, 0x67, 0x45,
    0x58, 0xbd, 0x55, 0xe9, 0x36, 0x3e, 0x82, 0xe1, 0x02, 0x3d,
    0x03, 0x1f, 0x0f, 0xbe, 0xdd, 0xfa, 0x13, 0xbd, 0x9b, 0x52,
    0xf4, 0xbd, 0x2f, 0x3b, 0xe4, 0xbb, 0xf5, 0x6c, 0x82, 0x3e,
    0x52, 0x34, 0x43, 0x3e, 0x33, 0xf5, 0xab, 0x3b, 0xd0, 0x9c,
    0x6e, 0xbd, 0x86, 0x1e, 0x76, 0x3d, 0x13, 0x22, 0x9a, 0xbd,
    0xe9, 0x9e, 0x4a, 0x3e, 0x74, 0xc7, 0x89, 0xbe, 0x28, 0x2f,
    0xdd, 0xbd, 0x7a, 0xc9, 0xca, 0xba, 0x72, 0x55, 0xcb, 0x3d,
    0x1e, 0x36, 0x6c, 0xbe, 0x52, 0xa5, 0x47, 0x3d, 0xd1, 0xb7,
    0x70, 0xbe, 0x5a, 0x00, 0xa4, 0x3c, 0x23, 0x0d, 0x13, 0x3e,
    0x27, 0x85, 0xe5, 0x3c, 0xb4, 0x6d, 0x33, 0x3d, 0x4a, 0xe4,
    0xca, 0x3d, 0x52, 0x36, 0x8d, 0xbd, 0xef, 0xc3, 0x91, 0xbd,
    0x2b, 0xad, 0xeb, 0xbd, 0x06, 0xad, 0x25, 0xbe, 0xdb, 0x30,
    0xed, 0x3d, 0xd3, 0x43, 0x04, 0xbe, 0x17, 0x6d, 0x28, 0x3e,
    0x9e, 0xf6, 0xd8, 0x3d, 0xee, 0xf2, 0x5e, 0xbe, 0xc4, 0xab,
    0x63, 0x3a, 0x17, 0x67, 0x51, 0xbc, 0xf7, 0x96, 0xe0, 0xbd,
    0xdf, 0xa8, 0x53, 0xbd, 0x7d, 0xf5, 0xf9, 0xbb, 0x32, 0x3f,
    0x80, 0x3d, 0xde, 0x7e, 0x50, 0xbe, 0x3f, 0xa8, 0x66, 0x3e,
    0x23, 0xbe, 0xa5, 0xbd, 0x15, 0x40, 0xa9, 0xbd, 0x1c, 0x94,
    0x4e, 0xbe, 0x09, 0xd8, 0x90, 0xbd, 0x46, 0x44, 0x79, 0x3e,
    0x56, 0xb5, 0x89, 0xbc, 0x97, 0xe7, 0x83, 0xbd, 0xfc, 0xa3,
    0x45, 0xbe, 0x37, 0xf7, 0xee, 0xbd, 0x71, 0x0e, 0xc5, 0x3c,
    0x7e, 0x30, 0x61, 0xbe, 0xa6, 0x31, 0x80, 0xbd, 0xb5, 0xd0,
    0xbe, 0x3c, 0xdc, 0x32, 0x2c, 0xbe, 0xdf, 0x05, 0x83, 0xbe,
    0xe3, 0x8a, 0x7b, 0x3d, 0xa3, 0xc7, 0x8e, 0xbe, 0x9f, 0x05,
    0xf8, 0x3d, 0x5a, 0x2c, 0x51, 0x3e, 0xfd, 0x98, 0x69, 0xbe,
    0x6f, 0x5c, 0x2d, 0x3e, 0x3a, 0xe2, 0x72, 0x3d, 0xb2, 0xc3,
    0x95, 0xbc, 0x79, 0xdd, 0xca, 0xbd, 0xa8, 0x8c, 0x32, 0x3e,
    0x07, 0xf4, 0xb1, 0x3d, 0xc6, 0x1a, 0xfb, 0xbd, 0x5c, 0xb0,
    0x32, 0xbe, 0x23, 0x0b, 0x1a, 0x3e, 0xb6, 0xc7, 0x09, 0x3e,
    0xab, 0x6c, 0xfe, 0xbd, 0x7c, 0x7c, 0x5e, 0xbe, 0xbc, 0x9d,
    0x2c, 0x3c, 0x25, 0x13, 0x69, 0xbe, 0x3c, 0xe0, 0x6c, 0x3e,
    0xd5, 0x3e, 0xc4, 0xbc, 0xfd, 0xf0, 0x68, 0xbc, 0xca, 0x04,
    0x41, 0xbe, 0xe5, 0xfe, 0x72, 0xbe, 0xf8, 0x08, 0x6d, 0xbe,
    0x75, 0x61, 0x36, 0x3d, 0x7e, 0x5d, 0x1c, 0x3e, 0x1f, 0xbb,
    0x97, 0x3d, 0x73, 0xfa, 0x12, 0xbe, 0x23, 0x9d, 0x21, 0x3e,
    0xdb, 0x54, 0x7a, 0x3d, 0x8d, 0x5b, 0x27, 0x3e, 0x8e, 0x5d,
    0x80, 0x3d, 0x58, 0x4e, 0x47, 0xbe, 0x75, 0xda, 0x30, 0xbe,
    0xca, 0x7e, 0x1c, 0x3e, 0x27, 0xc2, 0x09, 0x3e, 0x4b, 0xb7,
    0x0a, 0xbe, 0xdc, 0xbc, 0xff, 0x3d, 0x91, 0xc7, 0x11, 0x3e,
    0x1a, 0xe5, 0x2e, 0xbd, 0x93, 0x69, 0x1b, 0x3e, 0x47, 0xb6,
    0xe8, 0xbd, 0x16, 0x00, 0xa3, 0xbc, 0x9d, 0x6c, 0x07, 0x3e,
    0xbd, 0xa8, 0x30, 0x3e, 0x36, 0xf9, 0x44, 0xbe, 0xfb, 0xbd,
    0x93, 0x3d, 0xb7, 0xd9, 0x31, 0xbe, 0x15, 0x79, 0x8f, 0x3d,
    0xb0, 0x02, 0x85, 0xbe, 0xff, 0x46, 0x42, 0x3d, 0x9a, 0xbb,
    0x9f, 0xbd, 0xa5, 0x34, 0x45, 0x3e, 0x09, 0x80, 0x7d, 0x3e,
    0x52, 0x96, 0x36, 0x3e, 0xa3, 0xdf, 0x82, 0x3e, 0x5c, 0x3c,
    0xb3, 0x3d, 0x94, 0x63, 0x7c, 0x3e, 0xb8, 0xaa, 0x3c, 0x3d,
    0x67, 0x7c, 0x0b, 0x3d, 0xb3, 0x2b, 0xea, 0x3d, 0x34, 0xa8,
    0x94, 0x3e, 0x16, 0xd7, 0x22, 0xbe, 0x69, 0x0d, 0x97, 0x3d,
    0x49, 0x7c, 0x42, 0x3e, 0xf4, 0xa7, 0x45, 0x3e, 0x93, 0xe8,
    0xdc, 0x3d, 0x63, 0xc7, 0x79, 0x3d, 0x0d, 0x8f, 0x13, 0x3e,
    0xc3, 0xfe, 0x04, 0xbe, 0xda, 0xf4, 0x9a, 0xbd, 0xf6, 0xe0,
    0x13, 0xbe, 0xbb, 0x0c, 0xe2, 0xbb, 0x06, 0xa9, 0xbf, 0x3c,
    0xd9, 0x85, 0xd1, 0xbd, 0x91, 0x83, 0x3f, 0x3e, 0x88, 0x79,
    0xc9, 0xbd, 0x9b, 0xaf, 0x20, 0x3d, 0xf3, 0x52, 0x48, 0x3e,
    0x64, 0x2b, 0xd5, 0xbd, 0x5c, 0xcc, 0x15, 0xbe, 0x1b, 0x78,
    0x28, 0x3c, 0xf1, 0xa3, 0x02, 0x3e, 0x09, 0xa3, 0x29, 0xbd,
    0x30, 0x55, 0xbd, 0x3c, 0x2c, 0x95, 0x73, 0x3e, 0xfa, 0xa3,
    0x1f, 0x3e, 0x95, 0xd3, 0x16, 0x3d, 0x95, 0x26, 0x9b, 0x3d,
    0xac, 0x94, 0x24, 0xbe, 0x42, 0x2f, 0x16, 0xbe, 0xf0, 0x0d,
    0x6d, 0x3e, 0x7e, 0xcf, 0x4f, 0x3e, 0xfc, 0x58, 0x7a, 0x3e,
    0xeb, 0xbb, 0x28, 0xbe, 0x37, 0x47, 0x18, 0x3e, 0xa3, 0x67,
    0x01, 0xbd, 0xe3, 0xf6, 0x11, 0xbe, 0xeb, 0x39, 0x11, 0xbe,
    0x48, 0xfb, 0x0b, 0x3e, 0xfb, 0x40, 0x62, 0xbd, 0x9c, 0xd6,
    0x30, 0x3e, 0xce, 0x63, 0x33, 0x3d, 0x32, 0x3f, 0x9a, 0x3e,
    0xda, 0x18, 0xbb, 0xbc, 0x1a, 0xf2, 0xb1, 0x3d, 0x60, 0xf6,
    0x5a, 0x3e, 0x8c, 0xef, 0xb9, 0x3d, 0x9d, 0x34, 0x4a, 0xbd,
    0x70, 0x91, 0x15, 0xbe, 0x2c, 0x02, 0x98, 0x3d, 0x05, 0x83,
    0xab, 0x3d, 0x66, 0xca, 0xe9, 0xbc, 0xf0, 0xa1, 0x9f, 0x3d,
    0x51, 0x5b, 0x70, 0x3e, 0x1b, 0x93, 0x8f, 0x3e, 0xc6, 0x44,
    0x38, 0x3c, 0xde, 0x5a, 0x5e, 0xbd, 0x5c, 0x97, 0x88, 0xbd,
    0x46, 0x15, 0x58, 0xba, 0x29, 0xab, 0x62, 0x3e, 0x6d, 0xea,
    0xa7, 0xbd, 0x20, 0xbd, 0x0f, 0x3e, 0xa6, 0xb8, 0x1b, 0x3e,
    0x6f, 0x8c, 0xdf, 0x3d, 0x2f, 0xd2, 0x18, 0xbe, 0xbe, 0x03,
    0x63, 0x3e, 0x90, 0x9c, 0xb9, 0xbd, 0xae, 0x85, 0x23, 0x3d,
    0x6f, 0x07, 0x40, 0x3e, 0xdf, 0x6c, 0x03, 0x3e, 0x9b, 0x7c,
    0xda, 0x3d, 0xf1, 0x48, 0x4e, 0x3e, 0x2d, 0xed, 0x05, 0x3e,
    0x0e, 0xa5, 0xb4, 0xbd, 0xce, 0x86, 0xce, 0xbd, 0x5b, 0x96,
    0x23, 0x3e, 0x3f, 0x29, 0x41, 0x3e, 0x7f, 0x61, 0x6f, 0x3d,
    0x94, 0x49, 0x4a, 0x3e, 0x0d, 0x5f, 0x49, 0xbe, 0x41, 0xf5,
    0xae, 0x3d, 0x0b, 0xde, 0x5e, 0x3e, 0x92, 0x7f, 0xc4, 0xbd,
    0xf6, 0x6d, 0xab, 0x3d, 0x99, 0x4c, 0xf1, 0x3d, 0x2a, 0x91,
    0x3a, 0xbe, 0xe4, 0x6d, 0x19, 0xbe, 0x21, 0x32, 0x52, 0x3e,
    0x85, 0xe8, 0x34, 0xbd, 0x87, 0xd4, 0xe7, 0x3d, 0x84, 0xbf,
    0x67, 0x3e, 0xc5, 0x42, 0xaa, 0xbc, 0xa8, 0x89, 0xec, 0x3d,
    0xb2, 0x04, 0x95, 0x3d, 0x22, 0xcc, 0xec, 0x3c, 0xf8, 0x40,
    0xd6, 0xbb, 0x3c, 0x0b, 0xd9, 0xbd, 0xcd, 0x25, 0x1c, 0x3e,
    0xfc, 0xbe, 0xfc, 0xbc, 0x92, 0x4f, 0x54, 0x3e, 0x78, 0x1e,
    0x04, 0x3e, 0xdf, 0x33, 0xb0, 0xbd, 0x87, 0x74, 0x1f, 0x3e,
    0x29, 0xfe, 0x99, 0xbd, 0xb2, 0xdf, 0x02, 0x3d, 0x48, 0x42,
    0x37, 0x3e, 0xef, 0xef, 0xd9, 0xbd, 0x50, 0x30, 0xc3, 0xbb,
    0x4f, 0x4a, 0xf7, 0xbd, 0x75, 0xe4, 0x60, 0x3e, 0x86, 0xa6,
    0x07, 0x3e, 0xdc, 0xcb, 0x29, 0x3e, 0x30, 0x08, 0x4f, 0x3e,
    0x92, 0xb8, 0xf1, 0xbd, 0x38, 0x95, 0x16, 0x3e, 0x8b, 0x61,
    0xfd, 0x3d, 0x20, 0xb0, 0x2e, 0x3e, 0x8a, 0x85, 0x61, 0xbd,
    0xf0, 0x37, 0x16, 0xbe, 0x67, 0x20, 0x59, 0xbd, 0x16, 0x69,
    0xa3, 0x3d, 0x1d, 0xc2, 0xa4, 0x3d, 0x1b, 0x4e, 0xb1, 0xbc,
    0x78, 0x86, 0x17, 0x3c, 0xa3, 0x57, 0x7e, 0x3d, 0xdf, 0xfd,
    0xa2, 0x3c, 0x58, 0x68, 0xcf, 0x3d, 0x18, 0x1a, 0x32, 0x3e,
    0xb6, 0x4a, 0x69, 0x3d, 0xfe, 0x68, 0x26, 0xb8, 0x3d, 0x79,
    0x89, 0x3d, 0x29, 0x53, 0x43, 0x3e, 0x10, 0xb9, 0xc1, 0xbd,
    0x6a, 0x17, 0xb0, 0x3d, 0xed, 0x9c, 0xb1, 0xbd, 0x6c, 0x70,
    0xb2, 0x3c, 0x28, 0x5d, 0x43, 0x3e, 0x60, 0x93, 0xca, 0xbd,
    0x35, 0x6d, 0xbc, 0x3c, 0x21, 0xdd, 0x12, 0xbe, 0x86, 0xc6,
    0x01, 0x3e, 0x4c, 0x50, 0x19, 0x3e, 0x0d, 0xcb, 0xd4, 0x3c,
    0x5a, 0xf2, 0x7d, 0xbd, 0x42, 0x3a, 0xf5, 0x3d, 0x1b, 0xb1,
    0x9b, 0xbd, 0x9f, 0xe3, 0x75, 0x3e, 0x31, 0x05, 0x6f, 0x3d,
    0x96, 0x10, 0x8a, 0x3e, 0xeb, 0xaa, 0x74, 0x3e, 0xae, 0x49,
    0x05, 0x3e, 0x4e, 0xb2, 0xeb, 0xbc, 0x21, 0x44, 0x3e, 0x3e,
    0x44, 0x06, 0x98, 0xbd, 0x77, 0x76, 0x6e, 0x3e, 0x3b, 0xa4,
    0x0c, 0xbd, 0xca, 0xba, 0x36, 0x3d, 0xdf, 0x8d, 0xc8, 0x3d,
    0xb6, 0x81, 0xc3, 0x3b, 0x5a, 0xa2, 0x31, 0x3e, 0xf9, 0x1a,
    0x49, 0xbe, 0x28, 0x05, 0x75, 0xbd, 0x0c, 0x36, 0x9d, 0x3c,
    0xf0, 0x9a, 0x28, 0x3e, 0xc6, 0x9b, 0x77, 0x3e, 0x3c, 0xac,
    0x5d, 0x3e, 0xaf, 0xd5, 0xe1, 0xbd, 0xc8, 0x86, 0x10, 0xbe,
    0x19, 0x2c, 0x98, 0x3c, 0x4e, 0x8e, 0xb7, 0xbd, 0xbd, 0x70,
    0x8d, 0x3d, 0x97, 0x15, 0xd8, 0xbd, 0xbb, 0xb5, 0x31, 0x3d,
    0xe4, 0x68, 0x24, 0x3d, 0x4c, 0x98, 0x0d, 0xbe, 0x7f, 0x9c,
    0x59, 0x3e, 0xf5, 0xf5, 0x11, 0x3e, 0x7a, 0xad, 0xcd, 0xbd,
    0x39, 0x90, 0x98, 0x3d, 0xe0, 0xf8, 0x41, 0xbd, 0x16, 0x9b,
    0x2f, 0x3e, 0xde, 0x95, 0xdb, 0x3d, 0x38, 0x6f, 0x28, 0x3e,
    0xc1, 0xac, 0x5b, 0x3e, 0xad, 0x88, 0xe8, 0xbd, 0x0b, 0x79,
    0x82, 0xbd, 0xb6, 0xb7, 0x20, 0xbe, 0x19, 0x58, 0x37, 0x3e,
    0x11, 0xb6, 0x60, 0x3e, 0xc7, 0x54, 0x2d, 0xbe, 0x63, 0x18,
    0x2e, 0x3e, 0xea, 0x3e, 0xc2, 0xbc, 0x26, 0x69, 0xe1, 0x3b,
    0x70, 0x04, 0x5f, 0x3e, 0x83, 0x65, 0x1f, 0x3c, 0x66, 0xee,
    0xdd, 0xbb, 0xf4, 0x6a, 0x59, 0x3e, 0x60, 0x3d, 0x05, 0xbe,
    0x70, 0xa6, 0x01, 0x3d, 0x1c, 0xe0, 0xe8, 0x3d, 0x51, 0xa2,
    0xfd, 0x3d, 0x26, 0x09, 0x43, 0xbe, 0xf1, 0x39, 0x19, 0xbc,
    0x05, 0xf0, 0x1c, 0x3e, 0xf0, 0xee, 0xb1, 0x3d, 0xf7, 0x23,
    0x61, 0x3e, 0x24, 0x8f, 0x85, 0x3e, 0x89, 0x47, 0x3b, 0x3e,
    0x07, 0x88, 0xc6, 0xbd, 0xdc, 0x3d, 0xb8, 0xbc, 0x7f, 0x9c,
    0x0c, 0x3e, 0xed, 0x40, 0x0a, 0xbe, 0x99, 0xf1, 0x51, 0x3e,
    0xdc, 0x04, 0x9c, 0xbd, 0x4b, 0x90, 0x30, 0x3e, 0xdc, 0x9f,
    0xa0, 0x3d, 0xb9, 0xec, 0x8d, 0x3c, 0x06, 0x2f, 0x97, 0x3c,
    0xcd, 0x82, 0x23, 0xbe, 0xd3, 0x4d, 0x76, 0x3e, 0xe1, 0x34,
    0x68, 0x3e, 0x69, 0xbc, 0x23, 0xbc, 0xfa, 0xfb, 0x8c, 0x3e,
    0x45, 0x31, 0x15, 0xbe, 0xf2, 0x1a, 0x2a, 0x3d, 0x29, 0x48,
    0x88, 0x3e, 0xb8, 0x4d, 0xcb, 0xbd, 0x13, 0x11, 0x5b, 0x3e,
    0x9e, 0x70, 0x61, 0x3e, 0x69, 0x8e, 0xca, 0x3c, 0x60, 0x10,
    0xff, 0xbd, 0x4f, 0x1e, 0xbc, 0xbd, 0x4d, 0x2f, 0x6e, 0x3e,
    0x26, 0x1a, 0x1d, 0x3e, 0xdd, 0xd6, 0x32, 0x3e, 0xde, 0x1f,
    0xae, 0xbb, 0xdc, 0xef, 0x7a, 0x3d, 0x51, 0x37, 0x8c, 0x3d,
    0x24, 0x10, 0x3d, 0x3e, 0x8f, 0x10, 0x56, 0x3e, 0xbd, 0x93,
    0x4c, 0x3d, 0x19, 0x76, 0x6b, 0xbd, 0xc5, 0x56, 0x44, 0x3d,
    0xef, 0xb3, 0x31, 0xbd, 0xbe, 0x51, 0x07, 0x3e, 0xed, 0xbb,
    0x84, 0x3d, 0xe1, 0x7d, 0x86, 0x3d, 0x8e, 0x98, 0x6e, 0x3e,
    0xc0, 0xd5, 0x81, 0x3d, 0xff, 0x02, 0x92, 0x3e, 0xbe, 0x50,
    0x6e, 0x3e, 0x51, 0xd3, 0x0d, 0xbe, 0x88, 0x6c, 0x93, 0xbd,
    0xce, 0xf9, 0xbd, 0x3d, 0xf7, 0x4b, 0x83, 0x3e, 0x1d, 0xe2,
    0x0a, 0x3e, 0x3d, 0x61, 0x2d, 0x3e, 0x47, 0x64, 0x2a, 0x3d,
    0xd0, 0xa4, 0x7d, 0x3e, 0x78, 0xa9, 0x32, 0x3e, 0xc7, 0xef,
    0x0b, 0xbe, 0x01, 0xca, 0x81, 0x3e, 0x4d, 0x5c, 0x7a, 0x3d,
    0x9a, 0x08, 0x05, 0xbd, 0x63, 0xd0, 0x0f, 0x3e, 0x93, 0x14,
    0x74, 0x3e, 0x23, 0x73, 0x65, 0x3c, 0x11, 0x73, 0x83, 0x3e,
    0x74, 0xe1, 0x4c, 0x3e, 0x88, 0xea, 0xfb, 0x3d, 0x73, 0x48,
    0xe1, 0xbd, 0x0f, 0x9f, 0xa0, 0x3d, 0xdc, 0x8a, 0x38, 0x3e,
    0x52, 0x51, 0x8c, 0x3e, 0x8c, 0xda, 0xe4, 0x3c, 0x7a, 0x01,
    0xca, 0x3c, 0x8f, 0xcf, 0x1c, 0x3e, 0xb9, 0x01, 0x8c, 0x3d,
    0x4a, 0xa2, 0x80, 0x3e, 0x59, 0x52, 0x77, 0x3e, 0xbc, 0x9a,
    0xf9, 0x3d, 0xe1, 0xe2, 0x7a, 0x3e, 0x7a, 0xd3, 0x1c, 0xbe,
    0xd8, 0x37, 0x70, 0x3e, 0x86, 0x92, 0x86, 0x3e, 0x5d, 0x89,
    0x3a, 0x3e, 0x00, 0x85, 0x64, 0x3e, 0x6c, 0x01, 0x1c, 0xbe,
    0x48, 0x60, 0x13, 0xbe, 0xed, 0xfe, 0xef, 0xbd, 0x1a, 0xd6,
    0x97, 0xba, 0x34, 0x79, 0x87, 0x3e, 0xde, 0xc3, 0x1f, 0x3e,
    0xf8, 0xad, 0x44, 0x3e, 0x93, 0xad, 0x17, 0x3d, 0x1e, 0x7c,
    0xd1, 0x3d, 0x74, 0xef, 0x26, 0x3e, 0x52, 0xde, 0xc5, 0x3d,
    0x11, 0x4f, 0x3d, 0x3e, 0x6f, 0xf0, 0xd7, 0x3d, 0x1e, 0x9a,
    0x81, 0x3e, 0x8a, 0xb8, 0xbe, 0x3c, 0xf2, 0xff, 0x7c, 0x3e,
    0x4b, 0x11, 0xe8, 0x3d, 0xc7, 0xdb, 0x53, 0x3e, 0x26, 0x7d,
    0x73, 0xbd, 0x25, 0x46, 0x1e, 0x3e, 0xcb, 0xa8, 0x62, 0xbd,
    0xbc, 0xc6, 0x93, 0x3e, 0x6f, 0x9a, 0xc3, 0x3d, 0x3d, 0xa8,
    0x4d, 0x3d, 0x89, 0xe2, 0x59, 0x3e, 0x37, 0x26, 0x26, 0x3e,
    0x9e, 0xe1, 0x84, 0x3e, 0xcd, 0xde, 0x32, 0xbd, 0x01, 0x5b,
    0x41, 0x3d, 0x3a, 0x55, 0x76, 0x3d, 0xe8, 0x3f, 0x78, 0xbd,
    0xa8, 0x91, 0x98, 0x3c, 0x97, 0xdb, 0xe2, 0xbd, 0x7b, 0xb5,
    0x1a, 0xbe, 0xbc, 0x22, 0xde, 0xbd, 0x32, 0x0e, 0x34, 0x3e,
    0x84, 0xfb, 0x8f, 0x3e, 0x93, 0x8f, 0xbd, 0x3c, 0xa6, 0xc7,
    0x5a, 0xbe, 0x10, 0xdc, 0x91, 0xbd, 0x00, 0xea, 0xcd, 0x3d,
    0xa3, 0xb0, 0x0a, 0xbd, 0x5e, 0x6f, 0xe9, 0x3c, 0x0f, 0x45,
    0x63, 0xbc, 0x8b, 0x3c, 0x07, 0x3e, 0xcd, 0x8c, 0x81, 0x3b,
    0x80, 0x4a, 0x7d, 0x3e, 0x2f, 0x36, 0x50, 0xbd, 0xbf, 0x09,
    0x87, 0xbd, 0x39, 0xc3, 0x82, 0xbb, 0xcd, 0x07, 0x74, 0x3e,
    0x8f, 0x76, 0x2d, 0x3d, 0x84, 0x6d, 0xa3, 0x3e, 0x0c, 0x1c,
    0xef, 0xbd, 0xc3, 0x24, 0xde, 0xbd, 0x74, 0x05, 0x48, 0x3e,
    0x04, 0x0c, 0x66, 0xbd, 0x86, 0x43, 0x21, 0x3e, 0x17, 0xa7,
    0x6e, 0x3d, 0xe7, 0x6e, 0x62, 0x3d, 0x69, 0x2e, 0x9a, 0xbd,
    0x4b, 0xe6, 0x4d, 0x3e, 0x2e, 0x43, 0x12, 0x3e, 0x61, 0xa2,
    0xcb, 0xbd, 0x21, 0xbd, 0x6d, 0x3e, 0xa5, 0xbb, 0xcc, 0xbd,
    0x05, 0x22, 0x60, 0x3e, 0x27, 0xd5, 0x87, 0x3d, 0x8e, 0x4c,
    0x91, 0xbd, 0x7a, 0x48, 0x87, 0x3e, 0x9e, 0xc9, 0x3a, 0x3c,
    0x05, 0x09, 0x81, 0xbc, 0xdf, 0xc8, 0x2f, 0x3e, 0x3f, 0xf9,
    0x28, 0xbc, 0xc6, 0xf8, 0x2e, 0x3e, 0xcb, 0x00, 0x00, 0xbe,
    0xfe, 0xe1, 0x64, 0x3e, 0xee, 0x96, 0xf8, 0xbd, 0xe5, 0x93,
    0x84, 0x3d, 0x26, 0xcb, 0x17, 0x3e, 0xd6, 0xae, 0x23, 0xbe,
    0x4c, 0x1a, 0x1e, 0xbe, 0x79, 0x44, 0x7a, 0x3e, 0xaf, 0xaa,
    0xc4, 0x3d, 0x4a, 0x80, 0x23, 0x3c, 0xe0, 0xb3, 0x2d, 0xbd,
    0xd2, 0x60, 0x55, 0x3d, 0x3a, 0xda, 0xb4, 0xbd, 0x2e, 0x94,
    0x0d, 0xbe, 0xb5, 0xd9, 0x12, 0xbd, 0x20, 0xd2, 0xb3, 0x3d,
    0x32, 0xe3, 0xf5, 0x3d, 0xca, 0x62, 0x05, 0x3e, 0xe7, 0xbb,
    0xd0, 0x3d, 0xb8, 0x60, 0x49, 0xbb, 0x2e, 0xc2, 0x1c, 0xbe,
    0x02, 0x1f, 0x4a, 0x3d, 0x73, 0xea, 0x5c, 0xbe, 0x48, 0x67,
    0x79, 0xbe, 0xce, 0xd7, 0x99, 0x3d, 0x3f, 0xde, 0xd3, 0xbd,
    0xb6, 0x4b, 0x46, 0xbe, 0x96, 0x19, 0x32, 0x3e, 0x63, 0xf9,
    0x9e, 0x3d, 0xb3, 0xf7, 0x76, 0xbe, 0x20, 0x2f, 0x3e, 0xbe,
    0x0c, 0x8e, 0x24, 0x3d, 0x10, 0x1e, 0xe9, 0xbd, 0xd8, 0x4f,
    0x58, 0x3d, 0x89, 0xf0, 0x0a, 0xbe, 0x5c, 0x81, 0x6a, 0xbe,
    0x78, 0x36, 0x71, 0xbe, 0xf4, 0x5e, 0x1a, 0xbe, 0xfc, 0x58,
    0x72, 0xbe, 0xa6, 0x91, 0xdf, 0xbd, 0x3f, 0x42, 0xe6, 0xbd,
    0x2b, 0x48, 0x8c, 0xbe, 0x9a, 0x42, 0x12, 0x3e, 0x9b, 0x73,
    0x0b, 0xbd, 0x6b, 0x30, 0xd0, 0x3b, 0x1b, 0x8d, 0xae, 0xbc,
    0x41, 0x05, 0x14, 0xbe, 0x0e, 0x37, 0xf4, 0x3d, 0x4b, 0x19,
    0xed, 0xbd, 0x39, 0xff, 0x6d, 0xbe, 0x37, 0x38, 0x59, 0xbe,
    0xbb, 0x63, 0x14, 0xbe, 0x30, 0x4b, 0x21, 0xbe, 0xd6, 0x08,
    0x1d, 0xbe, 0x96, 0x9f, 0xcd, 0xbd, 0x54, 0xb3, 0x2e, 0x3d,
    0x95, 0xa0, 0xbd, 0x3d, 0x4d, 0x7a, 0xd1, 0xbc, 0x72, 0xff,
    0x51, 0xbd, 0x11, 0x0d, 0x49, 0x3d, 0x63, 0x82, 0x93, 0xbd,
    0x8a, 0x02, 0x6d, 0xbe, 0xa3, 0x81, 0xfc, 0xbd, 0xae, 0x60,
    0x3a, 0x3d, 0x3a, 0x80, 0x22, 0xbd, 0xcf, 0xcd, 0x82, 0xbe,
    0x25, 0xbf, 0xeb, 0x3c, 0x49, 0x97, 0xea, 0x3d, 0xea, 0x04,
    0x34, 0xbe, 0xa4, 0x80, 0x37, 0x3d, 0xee, 0x6c, 0x50, 0x3c,
    0x91, 0xec, 0xa6, 0xbd, 0xc3, 0x9c, 0x1f, 0xbe, 0x50, 0xe8,
    0x14, 0xbe, 0xf6, 0x54, 0xee, 0x3d, 0xb2, 0xc7, 0xeb, 0xbd,
    0xde, 0x6e, 0xd2, 0x3d, 0x92, 0xc1, 0x95, 0xbd, 0x2a, 0xe5,
    0xd0, 0xbd, 0xe3, 0x00, 0x5d, 0xbc, 0xa6, 0x3c, 0x99, 0xbd,
    0xdc, 0xa8, 0x55, 0x3d, 0x5f, 0x85, 0x6c, 0xbe, 0x9b, 0xce,
    0x80, 0x3d, 0x91, 0x7e, 0x94, 0xbe, 0x00, 0xf7, 0x16, 0x3e,
    0xef, 0xbf, 0x14, 0x3e, 0x7d, 0x31, 0x9f, 0xbc, 0xfa, 0x36,
    0x01, 0x3e, 0x69, 0x91, 0x1d, 0xbd, 0xd4, 0x78, 0x77, 0xba,
    0x20, 0x2c, 0xff, 0xbc, 0x50, 0x4b, 0xbd, 0xbd, 0x29, 0x6a,
    0x28, 0xbe, 0x69, 0x8c, 0xd0, 0xbc, 0x03, 0x10, 0xab, 0xbd,
    0xe6, 0x3e, 0x88, 0xbe, 0x7f, 0x07, 0xf4, 0xbd, 0x5c, 0xbb,
    0x63, 0xbd, 0x9a, 0x95, 0x0d, 0x3d, 0xeb, 0xcb, 0x1c, 0xbc,
    0x6e, 0x50, 0x38, 0xbe, 0x46, 0xef, 0x91, 0xbe, 0x8a, 0x91,
    0xb8, 0xbd, 0x5a, 0x7b, 0x18, 0xbe, 0x0a, 0x51, 0x7b, 0xbe,
    0xba, 0x42, 0x2b, 0xbe, 0x07, 0xcb, 0x79, 0xbe, 0x91, 0x3c,
    0x10, 0xbe, 0x9d, 0x82, 0x91, 0x3e, 0x8c, 0xf7, 0x5a, 0x3e,
    0x8b, 0x0f, 0x3b, 0x3e, 0xc4, 0x77, 0xc5, 0x3e, 0xd2, 0x72,
    0x8c, 0xbe, 0x41, 0x77, 0x09, 0x3f, 0x99, 0x2a, 0x81, 0xbc,
    0x2b, 0xc0, 0xdb, 0x3e, 0xf2, 0x7f, 0x30, 0x3f, 0xcb, 0x5b,
    0xf6, 0x3d, 0x17, 0x19, 0x92, 0xbe, 0x6c, 0xc8, 0xef, 0xbe,
    0xab, 0xbb, 0x21, 0x3e, 0x89, 0x18, 0xa1, 0x3e, 0xb4, 0xd6,
    0xaa, 0x3c, 0xd5, 0x87, 0xef, 0xbd, 0x10, 0x18, 0x07, 0xbe,
    0xb3, 0x3a, 0xf3, 0xbe, 0xf1, 0x09, 0xcd, 0xbe, 0x2b, 0x30,
    0xd7, 0x3e, 0x11, 0xcb, 0x5a, 0xbe, 0xe9, 0xbd, 0xd7, 0xbc,
    0x18, 0xbc, 0x1d, 0xbe, 0xc4, 0x01, 0x89, 0xbe, 0x30, 0x5a,
    0xe7, 0xbe, 0xda, 0x16, 0x98, 0x3e, 0x3f, 0xfe, 0xc5, 0xbe,
    0x66, 0xaa, 0x1f, 0xbe, 0xc8, 0x67, 0x09, 0xbd, 0x9e, 0xf6,
    0x1f, 0x3e, 0xcb, 0xf9, 0x8b, 0x3e, 0x03, 0x56, 0x75, 0x3e,
    0x7e, 0x50, 0x58, 0x3e, 0xbe, 0xcf, 0x64, 0x3e, 0x92, 0xe9,
    0x70, 0x3e, 0x35, 0x87, 0x6a, 0xbe, 0x1a, 0xe4, 0xa2, 0x3e,
    0xf7, 0xab, 0x2a, 0x3e, 0xb4, 0xa0, 0xdf, 0xbe, 0x74, 0x7a,
    0x10, 0x3e, 0x68, 0x04, 0x79, 0x3d, 0x31, 0x6c, 0x7b, 0xbe,
    0xde, 0x02, 0x0f, 0x3e, 0xe5, 0x9d, 0xaf, 0xbd, 0xa6, 0x03,
    0x9d, 0xbe, 0x77, 0xf0, 0x0f, 0xbc, 0x56, 0xcc, 0x2e, 0x3e,
    0x2f, 0xb7, 0xf9, 0xbc, 0x92, 0x27, 0x12, 0xbe, 0x14, 0xe6,
    0x9c, 0xbc, 0x93, 0x65, 0x81, 0xbd, 0x3c, 0xde, 0x5d, 0xbd,
    0x9f, 0xf5, 0xa2, 0x3d, 0xe8, 0x00, 0x18, 0xbd, 0x82, 0x2d,
    0x5e, 0x3d, 0xd6, 0x56, 0x49, 0x3c, 0xbc, 0x1d, 0xc1, 0x3d,
    0x7e, 0xbf, 0xc4, 0x3d, 0x68, 0x21, 0x62, 0xbd, 0x2f, 0xb7,
    0xf9, 0xbc, 0x92, 0x27, 0x12, 0xbe, 0x14, 0xe6, 0x9c, 0xbc,
    0x93, 0x65, 0x81, 0xbd, 0x3c, 0xde, 0x5d, 0xbd, 0x9f, 0xf5,
    0xa2, 0x3d, 0xe8, 0x00, 0x18, 0xbd, 0x82, 0x2d, 0x5e, 0x3d,
    0x24, 0x52, 0xc0, 0x3c, 0x6f, 0xc2, 0xda, 0x3d, 0x1c, 0x62,
    0xa1, 0x3d, 0xd9, 0x0a, 0x92, 0xbd, 0x93, 0xe2, 0xd6, 0xb9,
    0x7a, 0x04, 0x60, 0x3d, 0xb8, 0x4d, 0xdb, 0xbd, 0x72, 0xc2,
    0xe5, 0xbc, 0x5a, 0x7c, 0xf1, 0xbd, 0x2d, 0xd6, 0xbf, 0xbd,
    0x9c, 0x5d, 0x89, 0xbd, 0x38, 0xd5, 0x32, 0xbe, 0xe0, 0x56,
    0x04, 0xbc, 0x51, 0x6f, 0x21, 0xbd, 0xe2, 0x2d, 0x39, 0x3d,
    0xb0, 0x85, 0x2a, 0x3b, 0x5a, 0xa9, 0xb0, 0x3d, 0x74, 0xe7,
    0x8f, 0x3b, 0xcf, 0x81, 0xe2, 0xbd, 0x02, 0x92, 0x11, 0x3e,
    0xc7, 0x7e, 0x04, 0xbc, 0x11, 0xb9, 0xfd, 0xbd, 0xe1, 0x18,
    0x43, 0x3d, 0x57, 0x63, 0xf7, 0xbd, 0x75, 0xa6, 0x3d, 0x3c,
    0x35, 0x45, 0x81, 0xbe, 0x0e, 0x36, 0x9c, 0x3c, 0x80, 0x77,
    0xba, 0xbd, 0x3f, 0xc8, 0x00, 0x3e, 0xff, 0x8d, 0xc3, 0xbc,
    0xf8, 0xa8, 0xe1, 0x3c, 0x1c, 0xad, 0x52, 0xbe, 0x0e, 0x40,
    0x5d, 0xbe, 0xa8, 0x1d, 0xa4, 0xbb, 0xae, 0xea, 0x17, 0x3e,
    0xa4, 0x4a, 0x93, 0x3d, 0x22, 0x1a, 0x02, 0xbe, 0xd8, 0x9e,
    0x16, 0xbe, 0x7d, 0xe6, 0x38, 0xbe, 0x53, 0x54, 0x04, 0x3e,
    0x36, 0xea, 0x07, 0x3e, 0x20, 0x39, 0x0f, 0xbe, 0xac, 0x1c,
    0x7b, 0x3d, 0x2e, 0x20, 0xa8, 0x3d, 0x5d, 0xa3, 0xfb, 0xbb,
    0x8e, 0x57, 0xb0, 0xbd, 0xc8, 0x25, 0x32, 0xbe, 0x0c, 0xa0,
    0x96, 0xbe, 0x96, 0xb5, 0x63, 0xbd, 0xe4, 0xde, 0x40, 0xbd,
    0xd3, 0x2b, 0x4b, 0xbe, 0xb3, 0x08, 0x83, 0xbe, 0xae, 0xb4,
    0x6d, 0xbe, 0x8b, 0x73, 0x76, 0xbe, 0xe5, 0x45, 0x26, 0xbe,
    0xe9, 0xf0, 0xb5, 0xbd, 0x9a, 0xe7, 0xfb, 0x3d, 0xc2, 0x50,
    0x8b, 0x3d, 0x56, 0x2d, 0xc6, 0x3d, 0x80, 0x10, 0x10, 0x3e,
    0x89, 0x43, 0x25, 0xbe, 0x0a, 0xb3, 0xf1, 0xbd, 0x85, 0x63,
    0x3c, 0x3d, 0x06, 0x9a, 0x20, 0xbe, 0x9b, 0x58, 0x12, 0xbe,
    0xed, 0x31, 0x8e, 0xbe, 0xa6, 0x63, 0x35, 0xbe, 0x23, 0x07,
    0x42, 0xbe, 0x10, 0xdc, 0x78, 0x3d, 0x6d, 0xb5, 0x01, 0xbe,
    0x6a, 0x3a, 0x90, 0xbe, 0x03, 0x94, 0xcf, 0x3d, 0x18, 0x6e,
    0x10, 0x3e, 0x32, 0xf9, 0x80, 0xbd, 0xb2, 0x46, 0xc0, 0xbc,
    0x42, 0xde, 0x2a, 0xbe, 0x1b, 0xd7, 0x88, 0xbe, 0x60, 0x7d,
    0xb1, 0x3d, 0x90, 0x0d, 0x84, 0xbe, 0x5e, 0x15, 0xcb, 0xbd,
    0x9c, 0xea, 0x35, 0xbd, 0x64, 0x8b, 0x3a, 0x3c, 0x6f, 0x2f,
    0xec, 0x3c, 0x17, 0x30, 0x6a, 0xbe, 0x2d, 0x86, 0xb0, 0x3d,
    0x82, 0x18, 0x81, 0xbe, 0x97, 0x81, 0x74, 0xbe, 0x2b, 0xef,
    0x8d, 0xbe, 0x05, 0xde, 0xff, 0xbd, 0xf1, 0x04, 0xc7, 0x3d,
    0xad, 0x9e, 0x01, 0x3d, 0xa7, 0xd5, 0x26, 0x3c, 0xdb, 0x98,
    0x70, 0xbc, 0x89, 0xa7, 0x09, 0xba, 0x0f, 0x2d, 0xef, 0x3d,
    0x7d, 0xda, 0x3d, 0xbe, 0x8e, 0x24, 0x0b, 0xbe, 0x22, 0xe0,
    0x4b, 0xbe, 0xe3, 0x77, 0xf1, 0xbd, 0x28, 0x1a, 0x96, 0xbc,
    0xe9, 0x1b, 0xbd, 0x3d, 0xf0, 0x2b, 0xf9, 0xbd, 0x6d, 0x69,
    0xf3, 0xbd, 0x4e, 0x7b, 0x31, 0x3e, 0x68, 0xbf, 0x31, 0xbe,
    0x4a, 0x20, 0x70, 0xbd, 0xdd, 0x4f, 0x95, 0xbd, 0x18, 0xe9,
    0x01, 0x3d, 0xaf, 0xd6, 0xe0, 0x3d, 0x85, 0xa7, 0xc8, 0xbd,
    0x8a, 0x2c, 0x03, 0xbe, 0x1f, 0x96, 0xf3, 0x3d, 0x07, 0xee,
    0x6b, 0xbd, 0x15, 0x62, 0xba, 0xbd, 0x5a, 0xaa, 0x83, 0xbd,
    0x11, 0x81, 0x1f, 0xbe, 0xd6, 0xbf, 0x21, 0x3e, 0x02, 0x22,
    0x25, 0xbe, 0xe0, 0xc8, 0xc0, 0xbd, 0x8e, 0x7b, 0xef, 0xbd,
    0x44, 0x7c, 0x83, 0x3d, 0xf3, 0xa2, 0x02, 0xbe, 0x37, 0x68,
    0x58, 0xbe, 0x95, 0x14, 0x5c, 0xbd, 0x6f, 0xde, 0x8f, 0xbd,
    0x18, 0xd5, 0xeb, 0x3c, 0xb2, 0xa6, 0xb9, 0xbd, 0x77, 0x14,
    0x62, 0xbd, 0xb2, 0x82, 0x4d, 0x3e, 0xc9, 0x81, 0x1b, 0xbe,
    0x25, 0xfc, 0x4c, 0xbd, 0xa9, 0xeb, 0x67, 0xbe, 0x9a, 0xec,
    0x75, 0xbe, 0xe6, 0x13, 0x09, 0x3e, 0xf2, 0x92, 0x87, 0xbe,
    0xce, 0xf0, 0xd5, 0x3d, 0xc5, 0x9f, 0xfd, 0xbb, 0x7c, 0x14,
    0x8e, 0xbd, 0x3a, 0xe6, 0xae, 0xbd, 0x01, 0x5b, 0x1b, 0xbe,
    0xe7, 0xc6, 0x82, 0xbd, 0x6e, 0xcf, 0x02, 0x3d, 0x6a, 0xfe,
    0xa5, 0x3d, 0x2f, 0xe9, 0xfe, 0xbb, 0xfe, 0xd4, 0x0a, 0xbe,
    0xe7, 0xc1, 0x83, 0x3d, 0xe1, 0xb9, 0x4d, 0x3d, 0x60, 0x5f,
    0xbc, 0xbd, 0xd7, 0xcf, 0x03, 0xbe, 0xe4, 0xe8, 0x85, 0x3d,
    0xed, 0x52, 0x17, 0x3d, 0xc0, 0x3b, 0x81, 0xbe, 0x3b, 0x80,
    0x6e, 0xbe, 0x59, 0x36, 0xa5, 0xbd, 0xa1, 0xb4, 0x27, 0xbe,
    0x35, 0x62, 0x3a, 0x3d, 0xf5, 0x04, 0x44, 0x3d, 0x0e, 0xd9,
    0x02, 0xbe, 0x3e, 0xe9, 0x9d, 0xbe, 0x71, 0x34, 0x4a, 0xbe,
    0xa1, 0x0e, 0x10, 0x3e, 0x96, 0x93, 0x1d, 0xbe, 0xea, 0x90,
    0x3c, 0xbe, 0x5c, 0x2f, 0x1f, 0xbe, 0x48, 0x11, 0x0b, 0x3e,
    0x2c, 0xa1, 0xa6, 0xbd, 0xd6, 0xff, 0x7a, 0xbe, 0xb0, 0x74,
    0xde, 0xbd, 0x5e, 0x77, 0xcb, 0xba, 0xba, 0x1e, 0x51, 0xbe,
    0xeb, 0xd0, 0x06, 0x3e, 0x0b, 0xc6, 0x5c, 0x3d, 0xc6, 0xec,
    0x99, 0x3d, 0x23, 0x8b, 0x9c, 0x3d, 0x6d, 0x82, 0x9a, 0xbe,
    0xb5, 0xf1, 0xb5, 0xbd, 0x99, 0xd5, 0x8b, 0x3d, 0xad, 0x91,
    0x05, 0x3e, 0x27, 0x0f, 0x14, 0xbe, 0x53, 0x90, 0xc2, 0xbc,
    0xdc, 0x16, 0xce, 0xbd, 0xa0, 0xdf, 0xa6, 0x3d, 0xbf, 0x3e,
    0x96, 0xbd, 0x04, 0x47, 0xf3, 0xbd, 0x5b, 0xb1, 0x6d, 0x3d,
    0x6b, 0x9f, 0x7a, 0x3c, 0x73, 0xe3, 0x55, 0xbe, 0xdc, 0xc6,
    0x83, 0xbe, 0x63, 0xaf, 0x49, 0x3d, 0x3a, 0xa0, 0x0b, 0xbe,
    0xc5, 0x58, 0x97, 0xbd, 0x15, 0x7c, 0xfe, 0x3c, 0x33, 0xb3,
    0x7f, 0xbd, 0xa3, 0x9b, 0xfe, 0x3d, 0x4d, 0x4f, 0xe2, 0xbc,
    0xcd, 0xbe, 0x84, 0xbe, 0xbd, 0x66, 0x0e, 0xbe, 0x36, 0x39,
    0xf5, 0x3d, 0x9f, 0x4f, 0x07, 0xbe, 0xa3, 0xc7, 0xea, 0xbd,
    0x1e, 0xda, 0x3d, 0xbe, 0xc3, 0x6d, 0x5f, 0xbe, 0x5a, 0x94,
    0x2c, 0xbe, 0x16, 0x61, 0x2c, 0xbe, 0xe9, 0x23, 0x7b, 0x3d,
    0x3b, 0x92, 0xdf, 0x3c, 0x6a, 0x09, 0x4b, 0xbd, 0x0f, 0x4d,
    0x8d, 0xbd, 0xf9, 0xb3, 0xf0, 0xbd, 0x68, 0x71, 0x90, 0xbe,
    0x3f, 0xc4, 0xd7, 0xbd, 0xc0, 0xb5, 0x4c, 0xbe, 0x64, 0x88,
    0x8e, 0xbd, 0x2b, 0x67, 0x10, 0xbe, 0x70, 0x1e, 0x97, 0xbd,
    0x12, 0x9c, 0xc5, 0xbd, 0x52, 0xe7, 0xf6, 0xbc, 0xa9, 0x61,
    0xca, 0xbd, 0xae, 0x02, 0x40, 0xbe, 0x8b, 0x90, 0xc1, 0x3d,
    0x92, 0x70, 0x90, 0xbd, 0x3a, 0xda, 0x5a, 0xbe, 0x07, 0x1e,
    0x90, 0xbd, 0x15, 0xff, 0xac, 0x3d, 0xe1, 0x24, 0x9c, 0xbc,
    0xd9, 0xf2, 0x06, 0x3e, 0x2f, 0x1a, 0x1f, 0x3e, 0xd8, 0x62,
    0x1c, 0x3d, 0xa9, 0x63, 0xe9, 0x3c, 0xa9, 0xbf, 0xde, 0xbb,
    0x9b, 0x20, 0x5b, 0x3d, 0x7b, 0xcd, 0x44, 0xbd, 0xfc, 0xdf,
    0xba, 0x3d, 0x49, 0xd8, 0x4b, 0xbe, 0x8b, 0x4c, 0x47, 0xbe,
    0x9c, 0x9f, 0x27, 0x3e, 0x1c, 0x07, 0x36, 0xbe, 0xa8, 0xc3,
    0x4b, 0xbe, 0xf2, 0x85, 0x23, 0xbe, 0xe9, 0x76, 0x32, 0x3e,
    0xc6, 0xb0, 0xa5, 0x38, 0xb4, 0x1d, 0x98, 0x3d, 0x2d, 0x77,
    0xee, 0xbd, 0x47, 0xe2, 0xe8, 0x3d, 0x14, 0xa7, 0x9d, 0xbd,
    0xae, 0x57, 0x1e, 0x3d, 0xc7, 0xeb, 0xfc, 0x3c, 0x96, 0x02,
    0x8c, 0xbd, 0x18, 0x93, 0x2b, 0x3e, 0x18, 0xef, 0xe9, 0xbd,
    0x5b, 0x06, 0x54, 0xbe, 0x6d, 0x6f, 0x06, 0xbe, 0xf6, 0x51,
    0x55, 0xbe, 0xb9, 0x8b, 0x80, 0xbe, 0x8d, 0x63, 0x44, 0xbe,
    0xde, 0x23, 0x7a, 0x3b, 0x4a, 0x9e, 0x35, 0x3e, 0x94, 0xd6,
    0x74, 0x3d, 0x94, 0xe0, 0xc3, 0xbd, 0x72, 0x9d, 0xba, 0xbd,
    0x48, 0x24, 0x72, 0xbe, 0x5a, 0xd2, 0x15, 0xbe, 0x84, 0x86,
    0xb6, 0xbd, 0x36, 0xe4, 0xd8, 0x3d, 0xe8, 0xbd, 0x3e, 0xbd,
    0xf5, 0xb5, 0x42, 0x3d, 0x37, 0x11, 0x7e, 0x3d, 0xec, 0x18,
    0x24, 0x3e, 0x71, 0x63, 0x4c, 0x3d, 0x11, 0xb6, 0x9c, 0xbc,
    0x35, 0xac, 0x12, 0xbd, 0xf1, 0x39, 0x67, 0xbe, 0x64, 0xd7,
    0xa1, 0xbd, 0x49, 0x42, 0xf1, 0xbd, 0x6e, 0x1c, 0xc2, 0x3c,
    0xc1, 0xa6, 0xe8, 0xbd, 0xe9, 0xbb, 0x62, 0x3c, 0x26, 0xc3,
    0x84, 0x3a, 0x76, 0x47, 0x4c, 0xbe, 0xee, 0x01, 0x0b, 0xbe,
    0xa6, 0xd7, 0x6c, 0x3e, 0xa7, 0x33, 0x96, 0xbe, 0x40, 0x58,
    0x48, 0xbd, 0x7e, 0x8d, 0x59, 0xbe, 0x60, 0xd0, 0x30, 0xbe,
    0xfd, 0x1a, 0xaf, 0xbb, 0xc1, 0x62, 0xa3, 0x3d, 0xf1, 0x33,
    0xb8, 0xbd, 0xe2, 0x30, 0xa8, 0x3d, 0xba, 0x69, 0x52, 0xbe,
    0x4c, 0xde, 0x95, 0x3d, 0xee, 0xe4, 0x95, 0x3d, 0x4a, 0xa6,
    0x8a, 0xbd, 0x4f, 0x79, 0xe8, 0xbd, 0xb7, 0x59, 0x14, 0xbe,
    0xb8, 0xcc, 0x89, 0x3d, 0xf3, 0xc7, 0x1f, 0xbe, 0xc7, 0xee,
    0x07, 0xbe, 0x92, 0x26, 0x5f, 0xbc, 0xb7, 0xe3, 0xf6, 0xbd,
    0x9e, 0xbf, 0x85, 0xbd, 0x8a, 0xa5, 0x19, 0x3e, 0x96, 0x0a,
    0xd0, 0x3c, 0xea, 0x01, 0x82, 0xbd, 0x82, 0xc8, 0x83, 0xbb,
    0xb6, 0xc2, 0x53, 0x3e, 0x94, 0xf8, 0x8f, 0xbc, 0xc3, 0xe2,
    0x87, 0x3c, 0x51, 0x26, 0x04, 0xbe, 0xc7, 0x50, 0xd6, 0x3d,
    0x95, 0x02, 0xcc, 0xbd, 0xbe, 0x0f, 0xa5, 0xbd, 0xf9, 0x4e,
    0x1f, 0x3e, 0x69, 0x1e, 0xb1, 0xbd, 0x68, 0x9f, 0xf9, 0xbd,
    0x9d, 0xf4, 0x4c, 0x3d, 0xd3, 0xc1, 0x6a, 0x3d, 0xa7, 0x49,
    0x43, 0xbc, 0xcc, 0x73, 0xb4, 0xbe, 0x77, 0x44, 0x3a, 0xbe,
    0xdf, 0x75, 0xa5, 0xbb, 0xc5, 0xe1, 0x12, 0xbe, 0x32, 0x64,
    0x18, 0xbd, 0x17, 0x80, 0x1d, 0xbe, 0x7d, 0x02, 0x50, 0xbd,
    0x67, 0xc7, 0x17, 0xbe, 0xf1, 0xfb, 0x57, 0xbe, 0xca, 0xd3,
    0x48, 0x3c, 0x4e, 0x53, 0xbc, 0xbc, 0x3b, 0xae, 0xe6, 0xbd,
    0x77, 0x5b, 0x5f, 0xbd, 0x04, 0xb0, 0xfc, 0x3b, 0xc2, 0x4b,
    0x81, 0xbe, 0x41, 0x28, 0x08, 0xbe, 0xde, 0x6f, 0xee, 0xbd,
    0xd8, 0xbc, 0xc3, 0x3d, 0xb5, 0x12, 0xe1, 0x3d, 0x78, 0x14,
    0x88, 0x3d, 0xa0, 0x75, 0x19, 0xbe, 0x0d, 0x07, 0xeb, 0x3d,
    0xbe, 0x2e, 0xb2, 0x3d, 0xf9, 0x11, 0x67, 0xbe, 0x77, 0x48,
    0xec, 0x3c, 0x5d, 0xcc, 0xed, 0x3d, 0xf2, 0x74, 0x0a, 0x3e,
    0x7b, 0xde, 0x8b, 0x3d, 0xf6, 0x64, 0x5e, 0xbd, 0x20, 0x6c,
    0x37, 0xbe, 0xc0, 0xe6, 0x11, 0x3d, 0x41, 0x93, 0x2f, 0x3e,
    0x7b, 0xa0, 0x79, 0xbe, 0xc4, 0x0d, 0x51, 0xbe, 0x25, 0x57,
    0xbf, 0xbd, 0xb9, 0x74, 0x89, 0x3d, 0xb9, 0x38, 0x71, 0xbd,
    0x07, 0xee, 0x2e, 0xbe, 0xdc, 0x0f, 0x1c, 0xbd, 0x27, 0x6c,
    0x1e, 0xbe, 0x80, 0x42, 0xc2, 0xbe, 0x6f, 0xf4, 0x83, 0xbd,
    0xf9, 0xe4, 0xae, 0xbc, 0x10, 0xfa, 0x67, 0x3c, 0x7c, 0x0a,
    0x42, 0xbe, 0x70, 0x01, 0x4c, 0x3e, 0xc2, 0xe7, 0xfa, 0x3d,
    0xc4, 0x70, 0x2f, 0x3e, 0xe2, 0xa8, 0x7a, 0xbe, 0x00, 0x82,
    0xa8, 0xbc, 0x27, 0x22, 0x3b, 0xbe, 0xd6, 0xb1, 0x10, 0xbe,
    0xaf, 0x7c, 0xcb, 0xbc, 0xa6, 0x9a, 0xc7, 0x3d, 0xf6, 0x3c,
    0x4f, 0xbe, 0x96, 0x93, 0xc6, 0xbd, 0xc8, 0x07, 0x8d, 0xbe,
    0x10, 0x50, 0x33, 0x3e, 0xa2, 0xb9, 0x5d, 0x3e, 0xcd, 0x9b,
    0x42, 0xbe, 0xb6, 0xd7, 0xc7, 0xbc, 0xd9, 0xd1, 0xc3, 0xbd,
    0x91, 0xec, 0x97, 0xbd, 0xd1, 0x2a, 0x0d, 0x3c, 0x74, 0x74,
    0xdf, 0x3d, 0xf5, 0x4f, 0xe2, 0xbd, 0x2c, 0x91, 0xb1, 0xbd,
    0x6d, 0x36, 0xe0, 0x3d, 0x62, 0xbd, 0x90, 0x3b, 0xea, 0xde,
    0x81, 0x3d, 0x99, 0xb5, 0x38, 0x3e, 0x15, 0xc4, 0xda, 0xbd,
    0x15, 0x00, 0x61, 0xbe, 0x6f, 0xa2, 0x3f, 0xbe, 0xbf, 0x9c,
    0x96, 0xbd, 0xf7, 0x54, 0xff, 0xbd, 0xe5, 0xa7, 0x21, 0x3d,
    0x13, 0x96, 0xa1, 0xbe, 0xc2, 0x50, 0x85, 0xbc, 0xe4, 0x80,
    0x69, 0x3e, 0xe4, 0xaf, 0xac, 0x3d, 0xab, 0x64, 0x8f, 0xbe,
    0x73, 0xa9, 0x43, 0xbe, 0xe0, 0xd3, 0xd8, 0xbd, 0x5b, 0x67,
    0x57, 0xbe, 0x98, 0xd9, 0x74, 0x3d, 0x7c, 0xad, 0xcc, 0xbd,
    0xcd, 0x4a, 0xe5, 0xbd, 0x03, 0xb8, 0x84, 0xbe, 0x5d, 0x8b,
    0xd8, 0xbd, 0x5c, 0x13, 0xf7, 0xbd, 0xda, 0x9c, 0x66, 0x3e,
    0x80, 0x8a, 0xb6, 0x3d, 0x71, 0xc2, 0xa2, 0xbd, 0x40, 0x5a,
    0xb2, 0xbd, 0x33, 0x8a, 0x92, 0x3d, 0x38, 0xf7, 0xd7, 0x3d,
    0x3b, 0xec, 0x8a, 0xbd, 0xec, 0x12, 0x7d, 0x3d, 0x89, 0x3d,
    0x06, 0x3c, 0xc4, 0x3c, 0x0b, 0xbe, 0x6e, 0x5b, 0x8f, 0xbb,
    0xbb, 0xcc, 0x07, 0xbe, 0x90, 0x92, 0x24, 0xbe, 0x06, 0x11,
    0x0c, 0x3e, 0x99, 0xdd, 0x41, 0xbe, 0x06, 0x93, 0x3f, 0xbd,
    0xd5, 0x0c, 0xef, 0x3d, 0x7c, 0xdc, 0xaf, 0xbd, 0x39, 0x80,
    0xfa, 0x3d, 0x01, 0xc9, 0x45, 0x3e, 0x71, 0x30, 0x3c, 0xbe,
    0x46, 0x6c, 0xfc, 0xbd, 0xa8, 0x6a, 0x8d, 0xbd, 0x92, 0x53,
    0x86, 0x3c, 0xb0, 0xa1, 0x70, 0xbd, 0x1b, 0xec, 0x87, 0xbc,
    0x3f, 0x63, 0xfb, 0xbd, 0x62, 0x1b, 0x7c, 0xbe, 0x1d, 0x3e,
    0x00, 0x3e, 0xd5, 0x4b, 0xfb, 0xbd, 0x49, 0x68, 0x71, 0xbe,
    0x1a, 0xd3, 0x62, 0xbe, 0xe8, 0x97, 0x80, 0x3e, 0x0e, 0x3b,
    0xfa, 0xbd, 0x0c, 0xb4, 0x7d, 0xbe, 0x01, 0xa5, 0xa4, 0xbd,
    0xc9, 0xfe, 0x51, 0xbe, 0xdb, 0x3a, 0x9e, 0xbd, 0xfa, 0xd7,
    0x25, 0xbe, 0xfb, 0x80, 0x48, 0x3e, 0x6c, 0xcc, 0x21, 0xbe,
    0xbc, 0xdc, 0x89, 0xbe, 0xb5, 0x75, 0x2b, 0x3e, 0x10, 0x8b,
    0x3b, 0xbe, 0xc5, 0xc1, 0x63, 0x3e, 0xda, 0x56, 0xb8, 0x3d,
    0x5e, 0x31, 0x55, 0xbe, 0x1d, 0xc6, 0x62, 0xbe, 0x27, 0x4a,
    0x0b, 0xbe, 0x32, 0x8f, 0x41, 0xbe, 0x2f, 0x70, 0x30, 0xbd,
    0x13, 0x2c, 0x16, 0x3e, 0xc3, 0xe6, 0x27, 0xbe, 0x9b, 0x88,
    0x59, 0xbd, 0xc0, 0x37, 0x64, 0x3d, 0xd9, 0x10, 0x28, 0x3e,
    0xfa, 0x5f, 0x11, 0x3d, 0x38, 0x80, 0x95, 0x3d, 0x50, 0x3c,
    0x61, 0x3d, 0x67, 0xf2, 0x82, 0xbe, 0xd4, 0x27, 0xb2, 0x3d,
    0xb5, 0x2c, 0x48, 0xbd, 0x48, 0xdf, 0x9b, 0x3c, 0xe6, 0xb6,
    0x83, 0xba, 0x08, 0x41, 0x7f, 0x3d, 0x6e, 0x35, 0x14, 0x3c,
    0x74, 0x6e, 0xe8, 0x3d, 0x60, 0x76, 0x8b, 0x3d, 0x6b, 0xa2,
    0x7f, 0xbd, 0xaa, 0xa5, 0x91, 0xbe, 0x36, 0xe0, 0xb8, 0xbe,
    0x5c, 0x90, 0x29, 0xbc, 0x2a, 0x5c, 0x2f, 0xbe, 0x32, 0x28,
    0xe7, 0x3c, 0xfd, 0x71, 0x8c, 0x3d, 0xb5, 0x7a, 0x41, 0xbc,
    0xf1, 0x36, 0xdc, 0xbd, 0xb6, 0x3f, 0xc9, 0x3c, 0x94, 0x61,
    0xe7, 0x3d, 0x86, 0xbf, 0x34, 0xbe, 0x5f, 0x97, 0xc9, 0xbd,
    0xcc, 0xae, 0xd4, 0x3d, 0x44, 0x3e, 0xee, 0xbd, 0xb0, 0x96,
    0xb0, 0x3d, 0x42, 0xfb, 0x45, 0xbd, 0x5b, 0xa4, 0x08, 0x3e,
    0x7c, 0x95, 0x52, 0x3c, 0x1a, 0x8a, 0x49, 0x3e, 0xb6, 0x82,
    0x73, 0x3d, 0xd7, 0xba, 0xfd, 0x3c, 0x97, 0x71, 0x0f, 0xbe,
    0x11, 0xa5, 0x04, 0x3e, 0x7f, 0x21, 0x7a, 0x3d, 0xab, 0x57,
    0xf9, 0x3c, 0xaa, 0xad, 0x57, 0x3e, 0x13, 0xbf, 0x16, 0xbc,
    0x9d, 0x41, 0xec, 0x3d, 0x64, 0xbc, 0x1d, 0xbe, 0xc6, 0xc3,
    0x84, 0xbd, 0x64, 0x11, 0x30, 0xbe, 0xc1, 0x5a, 0x48, 0xbe,
    0xdc, 0x91, 0x0f, 0xbc, 0x4b, 0x87, 0xdd, 0xbd, 0x31, 0x8b,
    0x28, 0x3d, 0xc1, 0x58, 0x10, 0xbd, 0x11, 0x1d, 0xf9, 0xbb,
    0x1d, 0xc0, 0x58, 0x3d, 0x2b, 0xa2, 0x35, 0x3e, 0x43, 0x96,
    0x87, 0xbd, 0x04, 0xc1, 0x80, 0xbd, 0xf9, 0xc4, 0x9e, 0xbc,
    0x8c, 0x53, 0x28, 0xbe, 0xd7, 0x1c, 0xb2, 0x3e, 0xb6, 0x7c,
    0xe0, 0xbd, 0x96, 0x85, 0x82, 0xbc, 0x2d, 0xad, 0x05, 0x3e,
    0xc3, 0x2a, 0x32, 0xbe, 0xf6, 0x3a, 0x55, 0xbe, 0xc5, 0x4c,
    0x46, 0x3e, 0xce, 0xd9, 0x1d, 0x3e, 0x67, 0xa9, 0x05, 0x3c,
    0x86, 0xb6, 0x4c, 0x3e, 0x76, 0x0d, 0xe5, 0xbd, 0x3e, 0x17,
    0x86, 0xbd, 0xff, 0xa1, 0xa7, 0xbd, 0x63, 0xd1, 0x3e, 0xbd,
    0xb2, 0xe7, 0x53, 0x3e, 0x9f, 0x28, 0x2d, 0x3d, 0xde, 0x33,
    0x2a, 0xbe, 0xe8, 0xae, 0x2b, 0x3e, 0x4a, 0xfd, 0xf6, 0xbd,
    0x8f, 0xd1, 0x27, 0xbe, 0x89, 0x32, 0x0f, 0xbe, 0x53, 0xb1,
    0x3b, 0xbe, 0x6a, 0x63, 0xab, 0xbc, 0x75, 0x5d, 0x33, 0xbe,
    0x7b, 0xf3, 0x3e, 0xba, 0x4f, 0x3b, 0x17, 0x3e, 0x16, 0x38,
    0x98, 0xbe, 0xfb, 0x8c, 0xc1, 0x3d, 0x86, 0x3c, 0x8d, 0xbe,
    0x11, 0x68, 0x4c, 0xbe, 0x57, 0xbf, 0x18, 0x3e, 0x90, 0xa1,
    0x66, 0x3e, 0xd2, 0x38, 0xb0, 0xbd, 0xd2, 0x10, 0xaa, 0x3d,
    0x4b, 0xbf, 0x82, 0x3d, 0x41, 0x36, 0x1a, 0x3e, 0x8f, 0x6d,
    0xac, 0x3d, 0x2a, 0xc4, 0x2a, 0xbe, 0x5d, 0x33, 0xc9, 0x3d,
    0x6f, 0x6d, 0x23, 0x3e, 0x49, 0x6d, 0x64, 0x3e, 0xa3, 0x00,
    0x65, 0xba, 0xbb, 0x6c, 0x0a, 0x3e, 0x08, 0x2b, 0x38, 0xbe,
    0xdd, 0x20, 0x95, 0xbe, 0x3d, 0x21, 0x66, 0xbe, 0xe6, 0x66,
    0xf6, 0xbb, 0x77, 0xfc, 0x57, 0x3d, 0xcd, 0x3f, 0xb4, 0x3e,
    0xcb, 0xb3, 0x83, 0xbd, 0x72, 0x57, 0x91, 0xbe, 0xdd, 0x84,
    0x32, 0xbd, 0xcb, 0xb2, 0x8b, 0xbe, 0x80, 0x61, 0x1d, 0x3e,
    0xaa, 0xe1, 0x32, 0x3e, 0x9d, 0x12, 0xec, 0x3c, 0x8d, 0xc0,
    0xe2, 0xbd, 0x2d, 0x36, 0x3a, 0x3e, 0xe5, 0x35, 0x8c, 0x3d,
    0xcd, 0xb8, 0x18, 0xbe, 0x64, 0xf3, 0x12, 0x3e, 0x3d, 0x06,
    0x5f, 0x3d, 0xfc, 0x0c, 0x1f, 0xbe, 0xaf, 0x9e, 0x1b, 0x3d,
    0x9a, 0xd9, 0x9e, 0x3d, 0x46, 0xcd, 0x82, 0x3d, 0x5b, 0x7d,
    0xe5, 0xbd, 0x8f, 0x4d, 0x15, 0x3e, 0xeb, 0xbd, 0x24, 0x3d,
    0xf2, 0xdb, 0xfc, 0x3d, 0xe8, 0xaa, 0x11, 0x3e, 0x11, 0xa5,
    0x9d, 0xbd, 0xbe, 0x8f, 0x6a, 0xbd, 0xe4, 0x34, 0x48, 0xbe,
    0xc2, 0x18, 0x5b, 0x3e, 0x88, 0x4f, 0x43, 0x3d, 0x68, 0x60,
    0x00, 0x3c, 0xfe, 0x41, 0x9c, 0x3d, 0xd3, 0x7d, 0x54, 0x3c,
    0x36, 0x5c, 0x31, 0x3d, 0xaf, 0x20, 0x4f, 0xbc, 0xe4, 0x53,
    0xda, 0xbc, 0x18, 0x22, 0x8c, 0xbd, 0x06, 0xa8, 0x22, 0xbe,
    0xb2, 0x28, 0x68, 0xbd, 0x1e, 0x2c, 0x18, 0xbd, 0x5b, 0xb7,
    0x22, 0x3e, 0xee, 0xe1, 0x0f, 0xbe, 0x82, 0x01, 0x32, 0x3d,
    0x62, 0x14, 0xad, 0xbd, 0xb6, 0x9b, 0x8c, 0x3d, 0x5c, 0x42,
    0x2f, 0x3e, 0x1e, 0x9e, 0x02, 0xbe, 0xde, 0x43, 0x84, 0x3d,
    0xe6, 0x2b, 0x06, 0x3c, 0xee, 0xd1, 0x2e, 0x3d, 0x89, 0x50,
    0x51, 0x3e, 0xb5, 0xab, 0x35, 0x3c, 0xda, 0x74, 0x1f, 0x3e,
    0x3e, 0x41, 0x4b, 0xbe, 0x1d, 0x5d, 0xa9, 0xbc, 0xa7, 0x5c,
    0xda, 0x3c, 0xb8, 0xa7, 0x12, 0xbd, 0xdf, 0x7e, 0x21, 0x3d,
    0xda, 0x5a, 0x30, 0xbd, 0x25, 0x4a, 0xe4, 0xbd, 0xaa, 0xc1,
    0x54, 0x3e, 0x24, 0xe0, 0x08, 0x3d, 0x65, 0xc3, 0xb5, 0x3c,
    0x0d, 0xaa, 0xe3, 0xbd, 0x69, 0xa4, 0xb5, 0x3c, 0xf9, 0x22,
    0xd9, 0xbd, 0x6d, 0xa1, 0xf2, 0xbc, 0xea, 0xdd, 0x0e, 0x3d,
    0x2b, 0x2c, 0x11, 0x3d, 0xd0, 0xe0, 0x13, 0xbe, 0x0a, 0xbf,
    0x57, 0x3e, 0xcb, 0x5c, 0xb2, 0xbc, 0xee, 0x00, 0x52, 0xbe,
    0xdd, 0xb9, 0x1f, 0xbe, 0xcc, 0xa7, 0x7f, 0xbe, 0x48, 0x61,
    0x67, 0xbd, 0x52, 0x4c, 0x13, 0xbe, 0xd9, 0x16, 0x89, 0x3d,
    0x18, 0x74, 0x1e, 0x3e, 0x18, 0x6e, 0x92, 0x3e, 0xc9, 0x8e,
    0xfd, 0x3c, 0x20, 0xb5, 0xc6, 0xbd, 0x75, 0x9c, 0x92, 0x3d,
    0x18, 0xc5, 0x2e, 0xbe, 0xb7, 0x5a, 0x0e, 0xbe, 0x8a, 0x27,
    0x2b, 0x3e, 0x06, 0x0a, 0xba, 0xbb, 0xf3, 0xcd, 0x39, 0x3e,
    0xc5, 0xb3, 0x57, 0x3e, 0x21, 0xfc, 0x79, 0x3b, 0x62, 0x50,
    0x9d, 0xbd, 0x8f, 0xef, 0xc9, 0x3c, 0x06, 0x6e, 0x92, 0x3d,
    0xd2, 0xf5, 0xce, 0x3d, 0xf9, 0xd2, 0x40, 0x3e, 0x1c, 0xb3,
    0x87, 0xbd, 0x31, 0x06, 0x39, 0x3d, 0x4f, 0x06, 0xb9, 0x3c,
    0x4e, 0x00, 0x9f, 0xbd, 0x58, 0x76, 0x50, 0xbe, 0x0c, 0xc4,
    0x8d, 0x3e, 0xa2, 0xd9, 0x01, 0xbe, 0x55, 0x8f, 0x32, 0xbd,
    0xf6, 0x58, 0x0a, 0x3e, 0x83, 0x5c, 0x2d, 0xbe, 0x45, 0x61,
    0xd8, 0xbd, 0x37, 0x5f, 0xf2, 0xbd, 0xcf, 0x99, 0x57, 0xbe,
    0x54, 0x59, 0x23, 0xbe, 0x71, 0xab, 0x32, 0x3d, 0x0e, 0x5f,
    0x6b, 0x3e, 0xcd, 0xf0, 0x24, 0xbd, 0x18, 0xda, 0xa4, 0xbc,
    0x22, 0x51, 0x29, 0xbe, 0xa2, 0x58, 0xfa, 0x3d, 0x39, 0xe6,
    0x76, 0xbe, 0x9d, 0x34, 0x2a, 0xbe, 0x91, 0xd5, 0xe5, 0xbd,
    0x15, 0x1e, 0x7c, 0xbd, 0x8b, 0x8c, 0xb4, 0x3e, 0xff, 0xb2,
    0x2c, 0xbe, 0x92, 0xaa, 0x97, 0xbe, 0x04, 0x45, 0x16, 0x3d,
    0x95, 0xd6, 0x82, 0xbd, 0xb3, 0x73, 0xd8, 0x3d, 0x5a, 0x84,
    0x07, 0xbe, 0x3b, 0x0f, 0x26, 0x3e, 0x83, 0xa5, 0xea, 0x3d,
    0x9a, 0x84, 0x27, 0xbe, 0xa1, 0xf5, 0x1f, 0xbe, 0x83, 0x61,
    0x27, 0x3e, 0x1d, 0x78, 0x8e, 0xbe, 0x40, 0x66, 0x9b, 0xbd,
    0x6d, 0xf6, 0x3b, 0x3e, 0xb3, 0x7a, 0xf2, 0xba, 0xac, 0xb6,
    0x26, 0xbc, 0x77, 0x1c, 0x2f, 0x3d, 0x1e, 0xe2, 0x07, 0xbe,
    0xb3, 0x43, 0x36, 0xbc, 0x24, 0xca, 0x84, 0xbe, 0xa9, 0xcf,
    0x34, 0xbe, 0xd4, 0xac, 0x72, 0x3e, 0x01, 0x90, 0xd2, 0x3d,
    0x48, 0x0d, 0xae, 0x3e, 0x31, 0x3b, 0x0e, 0xbe, 0xc2, 0x17,
    0x31, 0xbd, 0x70, 0x13, 0xe5, 0x3d, 0x6d, 0xbd, 0x7f, 0xbe,
    0x8b, 0x53, 0xd8, 0x3c, 0xef, 0xda, 0xe1, 0x3d, 0x32, 0x0c,
    0x02, 0xbe, 0x8a, 0x04, 0x91, 0x3c, 0xd2, 0xd7, 0x35, 0x3e,
    0x0e, 0xe8, 0x8c, 0x3c, 0xe7, 0xbb, 0x92, 0xbe, 0x85, 0x82,
    0x9d, 0xbe, 0x2b, 0x83, 0x2e, 0xbc, 0x48, 0x24, 0x24, 0x3e,
    0x2a, 0x29, 0x12, 0xbd, 0xd1, 0x71, 0xb8, 0x3e, 0x73, 0xc8,
    0xcc, 0x3d, 0xc3, 0x9f, 0x05, 0xbe, 0x52, 0x5c, 0xad, 0x3c,
    0x28, 0x79, 0x2c, 0xbe, 0x75, 0x22, 0x7f, 0xbe, 0x99, 0x58,
    0x98, 0xbd, 0x93, 0x4c, 0xf3, 0x3d, 0x02, 0x94, 0x52, 0x3e,
    0x5d, 0x16, 0x16, 0xbe, 0xa9, 0x89, 0xde, 0xbd, 0xd1, 0xb4,
    0x07, 0x3b, 0x7f, 0x20, 0x22, 0x3e, 0xc1, 0x24, 0x7e, 0xbe,
    0x6e, 0xb6, 0x03, 0xbe, 0xff, 0xfc, 0x2f, 0x3e, 0x10, 0x67,
    0xb5, 0x3e, 0xc0, 0xe8, 0x43, 0x3e, 0xd8, 0x55, 0x3c, 0xbe,
    0x6d, 0x5a, 0x92, 0x3d, 0x92, 0xb1, 0xbf, 0x3d, 0x26, 0x1a,
    0x0b, 0xbe, 0x93, 0x89, 0x36, 0x3e, 0x38, 0x27, 0x59, 0xbe,
    0xc1, 0x34, 0x00, 0xbe, 0x29, 0x23, 0x5b, 0x3e, 0x5f, 0xf4,
    0xde, 0xbd, 0x40, 0x8d, 0xfe, 0xbd, 0xa1, 0xc0, 0xf4, 0xbd,
    0x41, 0x84, 0x8c, 0xbe, 0x42, 0x4e, 0x23, 0x3d, 0x8c, 0x3a,
    0x5d, 0x3b, 0x8c, 0x7d, 0x1b, 0x3e, 0xc9, 0x05, 0x40, 0xbd,
    0xc4, 0x05, 0x60, 0xbe, 0x07, 0xd2, 0x51, 0xbe, 0x4d, 0xbb,
    0xda, 0x3d, 0x49, 0x38, 0x19, 0x3d, 0x83, 0x21, 0xe9, 0x3d,
    0x67, 0x22, 0x14, 0xbe, 0x6a, 0x4b, 0xda, 0x3e, 0x18, 0xa0,
    0x55, 0x3c, 0x3b, 0xe4, 0x18, 0x3e, 0x06, 0x38, 0x10, 0x3e,
    0xda, 0xa5, 0x0b, 0x3d, 0x18, 0x36, 0x66, 0xbd, 0x66, 0xbd,
    0x5a, 0xbe, 0x33, 0x30, 0x97, 0xbd, 0x4e, 0xe2, 0x93, 0xbc,
    0x5f, 0x63, 0x94, 0x3e, 0xf3, 0x2e, 0x8a, 0x3d, 0x56, 0x1b,
    0x61, 0xbe, 0xff, 0xd2, 0x3c, 0xbd, 0x5c, 0x29, 0x13, 0xbe,
    0xe8, 0x92, 0xcc, 0xbd, 0xd8, 0xc8, 0xb1, 0xbc, 0xcb, 0x90,
    0x00, 0x3c, 0x6d, 0xac, 0x0d, 0x3e, 0x3f, 0x3b, 0x06, 0xbe,
    0xec, 0x5c, 0x1f, 0xbd, 0x41, 0xf8, 0xb8, 0x3d, 0x18, 0xad,
    0xce, 0x3d, 0xc9, 0xab, 0x1f, 0xbe, 0x61, 0x62, 0xb9, 0xbb,
    0xde, 0x05, 0xb6, 0x3d, 0x8f, 0xb2, 0xa8, 0xb9, 0x2f, 0x69,
    0x4a, 0xba, 0xd5, 0x4a, 0x97, 0x3d, 0xea, 0x66, 0x78, 0x3e,
    0xef, 0x37, 0x0c, 0x3b, 0xfa, 0x55, 0xe7, 0xbd, 0xfd, 0xdc,
    0x84, 0xbe, 0xac, 0xcf, 0xf8, 0x3d, 0xf1, 0x7b, 0x25, 0x3e,
    0xd7, 0xd7, 0xc4, 0xbd, 0x58, 0x5f, 0x6c, 0xbe, 0xdd, 0x7c,
    0xfd, 0x3d, 0x19, 0x85, 0xce, 0x3d, 0xde, 0x3f, 0x38, 0xbe,
    0xfa, 0x77, 0x5a, 0xbe, 0x8d, 0x6f, 0x4f, 0x3c, 0x59, 0xb8,
    0x2b, 0x3e, 0x3d, 0x01, 0xd3, 0xbd, 0xd1, 0x84, 0xca, 0x3b,
    0xb3, 0x19, 0xc2, 0x3d, 0xc0, 0xe1, 0x61, 0xbc, 0x19, 0xef,
    0x21, 0x3c, 0x94, 0x90, 0x0e, 0xbe, 0x01, 0x0d, 0x86, 0xbd,
    0x38, 0x53, 0x83, 0x3e, 0x2c, 0x35, 0xd8, 0xbc, 0x06, 0x7c,
    0x81, 0xbd, 0xd6, 0xae, 0x5a, 0x3e, 0x28, 0x23, 0x76, 0x3d,
    0xd2, 0xee, 0x5b, 0xbe, 0x5f, 0x00, 0x77, 0xbd, 0x0d, 0x76,
    0x69, 0xbc, 0x2f, 0xb5, 0x4d, 0x3e, 0x85, 0xf1, 0x0a, 0xbe,
    0x52, 0xd2, 0x82, 0xbd, 0xde, 0x8b, 0x02, 0x3e, 0x31, 0x60,
    0x32, 0xbd, 0x92, 0x56, 0x91, 0x3d, 0x6e, 0x7c, 0x35, 0xbd,
    0x7a, 0x97, 0x46, 0x3d, 0xb8, 0xcf, 0x85, 0x3e, 0x46, 0xf6,
    0x9a, 0xbd, 0x89, 0x87, 0x1a, 0xbe, 0xaf, 0xed, 0x4b, 0x3e,
    0x1f, 0x88, 0x9f, 0x3d, 0xd5, 0xed, 0x05, 0xbd, 0xc5, 0x1d,
    0xc2, 0x38, 0x28, 0x58, 0xbd, 0xbd, 0xc4, 0xff, 0x72, 0x3e,
    0xc1, 0x2b, 0xed, 0xbd, 0x33, 0xce, 0xd7, 0xbd, 0xda, 0xfc,
    0x68, 0x3e, 0x51, 0x9d, 0xd4, 0x3c, 0x19, 0xcc, 0x53, 0x3d,
    0xe1, 0x34, 0x03, 0xbe, 0x14, 0x85, 0x4a, 0x3d, 0x97, 0x9a,
    0x8a, 0x3e, 0x1d, 0x10, 0xf7, 0x3c, 0x6d, 0xd9, 0xb2, 0xbd,
    0xd1, 0xa2, 0x87, 0x3e, 0x66, 0x74, 0xb1, 0x3d, 0x83, 0x00,
    0x59, 0xbe, 0xeb, 0xef, 0x98, 0xbd, 0x6c, 0x2d, 0x02, 0x3d,
    0xb6, 0xd7, 0x55, 0x3e, 0xac, 0x54, 0x62, 0x3d, 0x7b, 0xf5,
    0x2b, 0xbe, 0xb6, 0x99, 0x86, 0x3d, 0xa8, 0xc3, 0x4a, 0xbd,
    0x23, 0x06, 0x45, 0xbe, 0x4e, 0x58, 0x26, 0xbe, 0xea, 0xdf,
    0x02, 0x3e, 0xa6, 0x84, 0x52, 0x3e, 0x56, 0xc0, 0x0e, 0xbe,
    0x90, 0xb2, 0x60, 0x3d, 0x4c, 0x6c, 0xd8, 0x3b, 0xa9, 0x8c,
    0x84, 0x3c, 0x12, 0x93, 0x18, 0xbe, 0x41, 0x49, 0x91, 0xbe,
    0x07, 0x9e, 0x6c, 0xbd, 0x37, 0x48, 0xfc, 0xbd, 0x52, 0x36,
    0xa7, 0x3d, 0x26, 0xbd, 0x72, 0x3e, 0x22, 0x27, 0xf2, 0x3d,
    0x5b, 0x2b, 0xa2, 0xbe, 0x58, 0x12, 0x4d, 0xbd, 0xb7, 0x63,
    0x9c, 0xbd, 0x85, 0x2c, 0xdf, 0x3d, 0x62, 0xe3, 0xe6, 0x3d,
    0xea, 0x4a, 0x9b, 0xbd, 0x4c, 0x56, 0x07, 0x3d, 0xeb, 0x57,
    0x0a, 0x3e, 0x1d, 0xc6, 0x83, 0xbe, 0x7a, 0x21, 0x9b, 0xbd,
    0x9a, 0xa8, 0x53, 0xbe, 0xdb, 0xb7, 0x2b, 0xba, 0x83, 0xed,
    0xf2, 0xbd, 0x0e, 0x01, 0xc1, 0xbd, 0xd5, 0x4b, 0xb9, 0x3d,
    0x95, 0xd4, 0xbc, 0x3d, 0xfc, 0xcd, 0x5d, 0xbe, 0x17, 0x96,
    0x89, 0x3d, 0xfe, 0xe5, 0x92, 0xbd, 0x9b, 0x4a, 0xa9, 0x3c,
    0x8d, 0xbd, 0xae, 0x3d, 0xe2, 0x51, 0x3e, 0x3e, 0xfe, 0xc2,
    0x8c, 0x3e, 0xd4, 0xbf, 0x55, 0x3d, 0x60, 0xa6, 0xea, 0xbd,
    0xb3, 0x5c, 0xa6, 0xbd, 0x94, 0x36, 0x75, 0xbd, 0xf0, 0xbd,
    0x24, 0x3d, 0xd5, 0x87, 0x2c, 0x3c, 0x9b, 0x1b, 0x05, 0x3e,
    0x22, 0x1f, 0x4c, 0xbd, 0x1a, 0xcf, 0x0a, 0xbd, 0x71, 0x61,
    0x51, 0xbe, 0x7d, 0x1c, 0x53, 0x3d, 0x1d, 0xb4, 0x5a, 0xbd,
    0x91, 0x18, 0xe4, 0x3c, 0xc1, 0x98, 0x82, 0x3d, 0x2e, 0xa8,
    0x46, 0x3e, 0x06, 0x79, 0xa3, 0x3d, 0xf2, 0x7d, 0xa0, 0x3d,
    0xe7, 0x99, 0x0e, 0xbe, 0xee, 0x95, 0x3b, 0x3e, 0x43, 0x86,
    0x84, 0xbe, 0x82, 0xc2, 0xf8, 0xbd, 0xfd, 0x02, 0xbd, 0xbd,
    0x02, 0x51, 0x42, 0x3e, 0x50, 0x3e, 0x66, 0x3e, 0x56, 0x9c,
    0xb5, 0xbc, 0x09, 0x4f, 0xfe, 0xbd, 0x93, 0x4b, 0xcd, 0x3c,
    0xc4, 0x27, 0x71, 0xbd, 0x26, 0xc5, 0xb9, 0xbd, 0xe6, 0x39,
    0x1f, 0x3d, 0xb0, 0xf8, 0x0f, 0x3e, 0xe7, 0xcc, 0xa3, 0x3b,
    0xcf, 0x0b, 0x17, 0x3e, 0x19, 0x76, 0x9a, 0xbe, 0x14, 0xea,
    0xb9, 0xbd, 0x7d, 0xcc, 0xac, 0x3c, 0x73, 0x04, 0xf6, 0x3d,
    0x02, 0x62, 0x84, 0x3d, 0xc3, 0xd7, 0x2f, 0x3e, 0xae, 0x24,
    0x47, 0x3e, 0xad, 0x6e, 0xd4, 0x3d, 0x29, 0xa9, 0x92, 0xbe,
    0xdd, 0x5a, 0xee, 0xbc, 0x6c, 0x4c, 0x7d, 0xbe, 0xa3, 0x51,
    0x25, 0xbe, 0xe8, 0x63, 0x33, 0x3b, 0xc2, 0xdc, 0x8a, 0xbd,
    0x9d, 0x24, 0xf2, 0x3d, 0xcf, 0x99, 0xb8, 0xbc, 0xa1, 0xe9,
    0xa3, 0xbe, 0x74, 0xb4, 0x00, 0xbe, 0x1c, 0x96, 0x96, 0xbe,
    0x8d, 0x7d, 0x41, 0xbd, 0x56, 0x55, 0x0c, 0x3e, 0x7f, 0xcb,
    0x54, 0x3d, 0x4b, 0xa1, 0x10, 0xbd, 0xa4, 0xd4, 0xbe, 0xbd,
    0x8a, 0xa3, 0x23, 0xbd, 0x39, 0xe0, 0x09, 0x3e, 0xcd, 0x22,
    0x31, 0xbe, 0x41, 0x97, 0xc6, 0xbc, 0x39, 0xeb, 0xbb, 0xbd,
    0x87, 0x1f, 0xe4, 0x3b, 0x94, 0x29, 0x97, 0x3d, 0x92, 0x2f,
    0x0e, 0x3e, 0x71, 0xd1, 0x2e, 0xbd, 0xae, 0x1f, 0x89, 0xbe,
    0xc5, 0xbf, 0x90, 0xbd, 0xe2, 0xee, 0x56, 0x3d, 0x4c, 0x3d,
    0x42, 0x3b, 0x22, 0x01, 0xb9, 0xbd, 0x93, 0x58, 0x82, 0xbe,
    0xde, 0xbb, 0x0e, 0x3e, 0xb2, 0x0a, 0x10, 0x3e, 0x1d, 0x3e,
    0x24, 0x3d, 0x20, 0xff, 0x78, 0xbd, 0x0b, 0x0c, 0x11, 0x3e,
    0x7d, 0x25, 0x4b, 0xbd, 0x2c, 0x47, 0x83, 0xbe, 0x54, 0x4a,
    0x38, 0xbc, 0x38, 0x1d, 0x02, 0xbe, 0x47, 0xf3, 0xeb, 0x3d,
    0xfe, 0x23, 0x3c, 0xbe, 0xa7, 0x26, 0x17, 0x3e, 0x04, 0xb2,
    0xb0, 0xbd, 0xbb, 0xd9, 0x56, 0xbe, 0x52, 0x76, 0x6b, 0xbe,
    0x28, 0x2e, 0x9e, 0xbd, 0x07, 0xb5, 0x3f, 0x3d, 0xd5, 0xca,
    0x5e, 0xbd, 0xd0, 0x80, 0xb1, 0x3d, 0x2e, 0xf1, 0x4f, 0xbd,
    0x18, 0x36, 0xf2, 0x3d, 0x34, 0xa9, 0x55, 0xbe, 0xd0, 0x0a,
    0x0f, 0xbe, 0x9b, 0xe2, 0x10, 0xbe, 0x4a, 0x89, 0x86, 0xbc,
    0xc2, 0x8f, 0x76, 0x3e, 0x00, 0x65, 0x65, 0xbe, 0x5f, 0xb9,
    0x63, 0x3e, 0xab, 0x83, 0xa3, 0xbd, 0x09, 0x97, 0x01, 0x3c,
    0x15, 0xe6, 0xf7, 0xbc, 0x3e, 0xe2, 0x9e, 0xbe, 0x92, 0x89,
    0x00, 0x3e, 0x89, 0x1d, 0x64, 0x3e, 0x46, 0x5d, 0x2e, 0xbe,
    0xb5, 0xb9, 0x5a, 0x3e, 0x98, 0xf0, 0xbe, 0x3d, 0xd5, 0x1b,
    0xa7, 0x3d, 0xea, 0x82, 0x07, 0x3d, 0x4e, 0xa8, 0x15, 0xbe,
    0x4c, 0x84, 0x2e, 0xbe, 0xf1, 0xce, 0x90, 0xbc, 0x19, 0x8a,
    0x0e, 0xbe, 0xd1, 0xb9, 0x80, 0x3d, 0x6d, 0x1d, 0xe3, 0x3d,
    0xeb, 0x9f, 0x5e, 0xbe, 0x3e, 0x32, 0x29, 0xbd, 0x53, 0x1f,
    0xbc, 0xbd, 0x17, 0x1c, 0xb4, 0x3d, 0x31, 0x59, 0x3e, 0x3e,
    0xc4, 0xdc, 0x2b, 0xbe, 0x9c, 0xe8, 0xe6, 0xba, 0x92, 0xb8,
    0x1b, 0xbd, 0x6b, 0x15, 0x31, 0xbe, 0x19, 0x37, 0x14, 0xbd,
    0x99, 0x6c, 0x8f, 0xbe, 0xfc, 0xf6, 0x48, 0xbe, 0x31, 0x4b,
    0x21, 0x3e, 0x3e, 0x0c, 0xfa, 0x3c, 0x5a, 0xe6, 0xb9, 0xbd,
    0x91, 0x5e, 0xdf, 0xbc, 0x42, 0x9a, 0xae, 0x3c, 0x05, 0x30,
    0x7d, 0xbe, 0xb2, 0xbb, 0xbd, 0xbc, 0x16, 0x72, 0x63, 0xbd,
    0xbb, 0x0b, 0x44, 0x3e, 0xcc, 0xd6, 0x7d, 0xbe, 0x80, 0xb8,
    0xd6, 0xbb, 0x20, 0xf4, 0xc4, 0x3d, 0x5e, 0x51, 0x33, 0xbe,
    0xed, 0xdf, 0xa6, 0xbd, 0xab, 0x48, 0x66, 0xbe, 0x98, 0x28,
    0x0d, 0x3e, 0xf7, 0x9f, 0x71, 0x3c, 0x8a, 0x59, 0x48, 0x3d,
    0xb8, 0x5d, 0x2e, 0x3e, 0x6c, 0xd4, 0xe1, 0x3d, 0x56, 0x59,
    0x5a, 0xbe, 0x7c, 0x61, 0x70, 0x3c, 0xc3, 0x61, 0x77, 0xbe,
    0xaf, 0xaa, 0x01, 0x3d, 0x5e, 0x9c, 0x78, 0x3e, 0x01, 0x68,
    0xe4, 0xbd, 0x86, 0xde, 0xd4, 0xbb, 0x7a, 0x0a, 0xa9, 0xbd,
    0x1b, 0x73, 0xc0, 0x3d, 0x02, 0xfc, 0x8d, 0xbe, 0x32, 0x7d,
    0x3d, 0xbe, 0xa4, 0x5a, 0x19, 0xbe, 0xf7, 0xac, 0x66, 0x3e,
    0x71, 0xf7, 0xe5, 0x3d, 0x29, 0x39, 0x84, 0xbd, 0xd1, 0x3d,
    0x7c, 0x3e, 0x87, 0xf4, 0xf9, 0xbd, 0x2e, 0x76, 0x67, 0xbe,
    0xc4, 0x23, 0x01, 0xbe, 0x98, 0xb7, 0x33, 0xbe, 0x8f, 0x54,
    0x36, 0xbe, 0x17, 0x54, 0x2b, 0x3e, 0xec, 0xa7, 0xd8, 0x3d,
    0xc8, 0x2c, 0x58, 0x3e, 0xb8, 0xfa, 0x0f, 0x3e, 0xfe, 0x57,
    0xba, 0x3d, 0x8f, 0xe3, 0xfd, 0x3d, 0xf2, 0x11, 0x86, 0xbe,
    0x6d, 0xbd, 0x36, 0x3d, 0x9d, 0x3f, 0x1a, 0x3e, 0x65, 0xfa,
    0x42, 0x3e, 0x9f, 0x37, 0x99, 0x3e, 0xcb, 0x93, 0x49, 0x3d,
    0xfe, 0x56, 0x4e, 0xbd, 0xff, 0x3a, 0x94, 0xbd, 0x54, 0x59,
    0x27, 0xbe, 0x26, 0xc9, 0xa3, 0xbc, 0xf7, 0xe2, 0x4f, 0x3d,
    0x17, 0xfb, 0x04, 0x3d, 0x02, 0x35, 0x25, 0x3e, 0xb0, 0x07,
    0x8c, 0xbd, 0x07, 0x7a, 0x27, 0xbe, 0x92, 0xa4, 0x95, 0x3d,
    0x27, 0x6c, 0x2d, 0x3d, 0x40, 0xcb, 0x06, 0xbe, 0xf4, 0xa1,
    0x4a, 0x3e, 0xce, 0xad, 0x37, 0x3e, 0x18, 0x9a, 0x34, 0x3d,
    0xc6, 0xf0, 0x46, 0x3c, 0x9d, 0xf8, 0x83, 0xbe, 0x51, 0x35,
    0x01, 0xbe, 0xe2, 0x46, 0x97, 0xbe, 0x55, 0xa7, 0x48, 0x3b,
    0xe6, 0x6d, 0x27, 0x3e, 0x55, 0x6e, 0xcd, 0xbd, 0x7c, 0xde,
    0xf1, 0x3d, 0x9f, 0xa8, 0xff, 0x3d, 0x37, 0x90, 0xa3, 0x3d,
    0xaf, 0x5e, 0x01, 0x3e, 0x22, 0xe3, 0xab, 0x3b, 0xe6, 0x54,
    0x82, 0x3d, 0xf3, 0x29, 0x79, 0x3e, 0xb6, 0xb9, 0xc5, 0xbc,
    0xc1, 0x95, 0xb9, 0x3d, 0x94, 0x0d, 0xf9, 0xbd, 0xa9, 0x04,
    0x00, 0xbd, 0x6b, 0x45, 0x21, 0xbe, 0x4b, 0x49, 0x84, 0xbe,
    0x98, 0x20, 0x48, 0xbd, 0xa3, 0x94, 0xc8, 0x3d, 0xdb, 0x70,
    0x34, 0x3e, 0xf5, 0x85, 0x8f, 0x3e, 0x83, 0xf1, 0x5b, 0x3b,
    0xd8, 0x90, 0x15, 0xbd, 0xc4, 0xef, 0x6b, 0x3d, 0x99, 0xe8,
    0x8f, 0xbe, 0xf1, 0x66, 0x1b, 0xbe, 0x2f, 0xdc, 0x3c, 0x3e,
    0x15, 0x29, 0x26, 0x3e, 0x90, 0x3f, 0x49, 0x3e, 0xc0, 0x60,
    0x9f, 0x3c, 0xb3, 0xff, 0xd1, 0x3c, 0xb4, 0xb0, 0x25, 0xbd,
    0xd2, 0xf2, 0xb6, 0xbd, 0x72, 0xcc, 0x57, 0xbd, 0x20, 0xec,
    0x0f, 0x3e, 0x52, 0xb3, 0x1c, 0x3e, 0x82, 0x3f, 0x88, 0x3e,
    0x20, 0x61, 0xda, 0x3d, 0x2b, 0x25, 0x2d, 0xbe, 0x3b, 0x2c,
    0xd8, 0xbd, 0x4a, 0x97, 0x1a, 0xbe, 0xc7, 0x69, 0xed, 0xbd,
    0x98, 0x5f, 0x53, 0xbd, 0xbf, 0x07, 0x86, 0xbd, 0x68, 0x55,
    0xe6, 0x3d, 0xa9, 0x0d, 0xc8, 0xbd, 0x39, 0x92, 0x83, 0xbd,
    0xa3, 0x70, 0xc0, 0x3d, 0x61, 0x03, 0x4f, 0xbd, 0x39, 0xc9,
    0x37, 0xbd, 0x39, 0xb4, 0x87, 0x3e, 0x12, 0xb3, 0xc1, 0x3d,
    0x23, 0xcf, 0xac, 0x3d, 0x6c, 0x88, 0x4f, 0x3d, 0x2d, 0xf1,
    0x59, 0xbe, 0x4c, 0x03, 0xd7, 0xbd, 0x09, 0x95, 0x57, 0xbe,
    0x46, 0x18, 0xb6, 0x3d, 0x9d, 0x6c, 0xf9, 0xbd, 0x18, 0xf2,
    0xf5, 0xbe, 0x9e, 0x7a, 0xc1, 0xbe, 0x4b, 0x15, 0x01, 0x3d,
    0x50, 0x57, 0xcf, 0xbe, 0xea, 0xf9, 0x06, 0x3e, 0xd1, 0x4a,
    0x90, 0xbe, 0xba, 0xae, 0x7e, 0x3e, 0x88, 0xe2, 0x3b, 0xbe,
    0x6f, 0x75, 0xab, 0xbc, 0x6b, 0x44, 0x79, 0xbe, 0xc6, 0x11,
    0x45, 0xbe, 0x36, 0xfa, 0x2b, 0x3e, 0x53, 0x20, 0xaf, 0x3c,
    0xc7, 0xd4, 0x4b, 0x3e, 0xe8, 0x40, 0x00, 0x3f, 0xed, 0x17,
    0xa6, 0x3e, 0x28, 0x83, 0x94, 0x3e, 0xdc, 0x92, 0x21, 0xbe,
    0xd1, 0xbd, 0xde, 0xbe, 0x8e, 0xb2, 0x94, 0xbd, 0x16, 0x49,
    0x66, 0x3d, 0x35, 0xa5, 0xd8, 0x3e, 0xcf, 0xf1, 0x8d, 0xbe,
    0x2f, 0xb1, 0x4b, 0xbe, 0x86, 0xcb, 0x87, 0xbe, 0x36, 0x35,
    0x6e, 0xbd, 0x07, 0x3d, 0x56, 0x3f, 0x03, 0xaa, 0xac, 0xbd,
    0x92, 0x32, 0x7a, 0x3e, 0xab, 0x10, 0x07, 0x3c, 0xf1, 0xf2,
    0xa8, 0x3e, 0xf0, 0x77, 0x17, 0xbf, 0x04, 0x74, 0xec, 0xbc,
    0x07, 0xa3, 0x5b, 0x3e, 0x63, 0x06, 0x49, 0xbe, 0x0e, 0x64,
    0xc2, 0x3e, 0x82, 0x18, 0xdb, 0x3d, 0x59, 0x84, 0x51, 0xbd,
    0x20, 0x5f, 0x00, 0x3d, 0x77, 0xca, 0x5d, 0xbd, 0x9f, 0x41,
    0x1b, 0xbf, 0x00, 0x58, 0xc3, 0x3e, 0xed, 0x8a, 0xb6, 0xbe,
    0x3a, 0x6e, 0x98, 0x3e, 0x97, 0xd5, 0x4d, 0xbe, 0x2c, 0x10,
    0x07, 0xbf, 0x0f, 0xe4, 0xbd, 0x3d, 0x48, 0x02, 0xa7, 0xbd,
    0x31, 0x73, 0x97, 0xbd, 0x35, 0x19, 0x11, 0xbd, 0xf0, 0x0a,
    0x5e, 0xbd, 0x91, 0xd3, 0xcb, 0xbb, 0xc8, 0x17, 0x04, 0xbc,
    0x5b, 0xdb, 0x77, 0xbc, 0x13, 0x92, 0xa2, 0xbc, 0x37, 0xb2,
    0xf5, 0xbc, 0x22, 0x57, 0xb7, 0xbc, 0x13, 0x29, 0x99, 0xbc,
    0x0c, 0x69, 0x88, 0xbc, 0x48, 0x02, 0xa7, 0xbd, 0x31, 0x73,
    0x97, 0xbd, 0x35, 0x19, 0x11, 0xbd, 0xf0, 0x0a, 0x5e, 0xbd,
    0x91, 0xd3, 0xcb, 0xbb, 0xc8, 0x17, 0x04, 0xbc, 0x5b, 0xdb,
    0x77, 0xbc, 0x13, 0x92, 0xa2, 0xbc, 0x22, 0x8f, 0x99, 0xbd,
    0x2c, 0x6d, 0x98, 0xbb, 0x7f, 0x3a, 0xa3, 0xbc, 0x37, 0x35,
    0x46, 0x3d, 0x85, 0xe5, 0x38, 0x3e, 0x66, 0x0b, 0xc5, 0x3d,
    0x50, 0x73, 0x91, 0x3e, 0x2e, 0x87, 0x3b, 0xbe, 0x54, 0x99,
    0xa6, 0xbd, 0x95, 0x0c, 0x72, 0x3e, 0x42, 0xbe, 0x98, 0x3e,
    0x3d, 0xc9, 0xab, 0x3d, 0xe8, 0x34, 0x35, 0x3e, 0xfb, 0x03,
    0x88, 0xbe, 0x4f, 0xba, 0x2f, 0xbe, 0x8b, 0xcd, 0x1e, 0xbe,
    0x5a, 0xba, 0xe7, 0x3e, 0xc0, 0x61, 0xb6, 0x3d, 0xc3, 0x6e,
    0xbb, 0x3e, 0xf5, 0x99, 0x11, 0xbe, 0xdc, 0x05, 0x85, 0x3e,
    0xad, 0xe6, 0xf5, 0x3b, 0xd5, 0xb4, 0x9a, 0xbc, 0x44, 0x6b,
    0x29, 0xbb, 0x51, 0x67, 0x24, 0x3e, 0x42, 0x1d, 0xc4, 0xbd,
    0x6b, 0x87, 0x57, 0x3e, 0xe7, 0xb8, 0x90, 0x3c, 0x96, 0x9c,
    0xcc, 0xbb, 0x33, 0x5e, 0xc1, 0x3b, 0xcb, 0x16, 0x63, 0x3e,
    0xab, 0xe4, 0x09, 0x3e, 0xfb, 0xe6, 0xf2, 0x3e, 0xb6, 0xe4,
    0x4a, 0xbd, 0xe8, 0x18, 0x9d, 0x3e, 0x12, 0x43, 0x46, 0xbe,
    0x84, 0x06, 0x0d, 0xbe, 0xc9, 0x43, 0x4f, 0x3d, 0xe9, 0x07,
    0xe3, 0x3c, 0x5c, 0x23, 0x8d, 0xbe, 0x4b, 0x2c, 0x68, 0xbe,
    0xe3, 0x28, 0x35, 0xbe, 0x0c, 0x3c, 0x09, 0x3d, 0x97, 0xfe,
    0x76, 0xbe, 0x1e, 0xe7, 0xac, 0x3e, 0x3d, 0xfa, 0x66, 0xbe,
    0x30, 0xc3, 0x68, 0x3e, 0x85, 0x98, 0xb6, 0xbe, 0x9b, 0xf6,
    0xeb, 0xbd, 0xf3, 0x60, 0x91, 0x3d, 0x66, 0x88, 0x19, 0xbe,
    0x3b, 0x55, 0xa1, 0x3d, 0xed, 0x54, 0x73, 0xbe, 0x13, 0x29,
    0xed, 0xbc, 0xb5, 0xb1, 0x16, 0x3d, 0xab, 0x76, 0x9b, 0xbd,
    0xba, 0x9a, 0x60, 0x3e, 0xfa, 0xd6, 0x9f, 0x3d, 0xbe, 0x2f,
    0xa5, 0xbe, 0x29, 0x29, 0xac, 0x3d, 0x24, 0xba, 0x4b, 0x3d,
    0x31, 0xdc, 0x1c, 0xbe, 0x2c, 0x7a, 0xa1, 0xbd, 0xdf, 0x0e,
    0xff, 0x3d, 0x22, 0x5b, 0x83, 0x3e, 0xa7, 0xcf, 0xd8, 0x3d,
    0x84, 0x9b, 0xc6, 0x3d, 0x00, 0x43, 0x2c, 0xbe, 0x48, 0x5a,
    0x03, 0x3e, 0xcf, 0x08, 0xf8, 0x3d, 0x63, 0x1e, 0x16, 0xbe,
    0x78, 0x9f, 0x06, 0xbe, 0xf6, 0x67, 0x31, 0x3e, 0xcb, 0x81,
    0xb6, 0xbd, 0x4d, 0x1c, 0x91, 0xbe, 0x6f, 0x7f, 0xb9, 0xbe,
    0xd0, 0xa6, 0x02, 0x3e, 0x34, 0xc2, 0x12, 0x3e, 0x1e, 0xa7,
    0x9d, 0xbe, 0xef, 0x71, 0x4f, 0xbe, 0x5f, 0x67, 0xc5, 0xbd,
    0x80, 0x4e, 0x37, 0xbe, 0xc7, 0x94, 0x97, 0xbe, 0x7a, 0xab,
    0x14, 0x3e, 0x3b, 0xb2, 0x86, 0x3e, 0xe7, 0x90, 0xab, 0x3e,
    0x7a, 0x5e, 0xb6, 0xbe, 0x9f, 0x34, 0x87, 0xbe, 0xd1, 0x24,
    0x28, 0xbc, 0xd4, 0x8b, 0x81, 0x3e, 0x14, 0x6c, 0xbf, 0xbe,
    0xd0, 0x40, 0xc4, 0xbe, 0x3b, 0x5f, 0x6b, 0xbe, 0xf5, 0xd5,
    0x6c, 0xbc, 0x46, 0xa0, 0x49, 0xbe, 0x9c, 0x70, 0x7b, 0xbd,
    0xf3, 0x36, 0x20, 0x3e, 0xec, 0xfd, 0xd1, 0x3e, 0x44, 0x07,
    0xa5, 0x3d, 0xe4, 0x85, 0x34, 0xbe, 0x8b, 0x51, 0xc1, 0xbe,
    0xd3, 0xf1, 0x32, 0x3c, 0xb5, 0xbb, 0x27, 0x3c, 0x01, 0xac,
    0x20, 0x3d, 0x1f, 0x7c, 0x97, 0xbe, 0x14, 0xe0, 0x7f, 0xbe,
    0x12, 0x52, 0x64, 0x3e, 0x1f, 0x4c, 0x24, 0xbe, 0xd8, 0x80,
    0x48, 0xbe, 0x2e, 0x3a, 0xe1, 0x3d, 0xa6, 0x05, 0xa5, 0x3e,
    0x1e, 0xe5, 0xa5, 0xbe, 0x38, 0xa7, 0x6b, 0x3d, 0xf3, 0x55,
    0x02, 0x3e, 0xde, 0x66, 0xa1, 0x3d, 0xdc, 0x95, 0x75, 0xbe,
    0xf6, 0x4e, 0x81, 0xbe, 0xbe, 0xbb, 0xee, 0xbd, 0x9d, 0xaf,
    0xb4, 0x3e, 0xe8, 0xe9, 0x7a, 0x3d, 0x85, 0xd5, 0x12, 0x3e,
    0x0a, 0x02, 0xd9, 0x39, 0xf6, 0x6c, 0x40, 0x3e, 0x1e, 0x4a,
    0x41, 0xbe, 0x6a, 0x50, 0xa3, 0xbd, 0x74, 0x57, 0xac, 0x3d,
    0x04, 0x9a, 0x02, 0xbd, 0xda, 0xce, 0xbc, 0xbc, 0x2f, 0x4b,
    0x2b, 0x3e, 0x27, 0x57, 0x96, 0xbc, 0x3a, 0x1a, 0x06, 0x3e,
    0x3e, 0xb8, 0xd0, 0x3d, 0xb3, 0xc2, 0x97, 0xbd, 0x14, 0xf0,
    0x12, 0xbe, 0x0b, 0xaf, 0xb8, 0xbe, 0x61, 0x63, 0xb6, 0x3d,
